{
    "1": "\u0000",
    "2": "\u0001",
    "3": "\u0002",
    "4": "\u0003",
    "5": "\u0004",
    "6": "\u0005",
    "7": "\u0006",
    "8": "\u0007",
    "9": "\b",
    "10": "\t",
    "11": "\n",
    "12": "\u000b",
    "13": "\f",
    "14": "\r",
    "15": "\u000e",
    "16": "\u000f",
    "17": "\u0010",
    "18": "\u0011",
    "19": "\u0012",
    "20": "\u0013",
    "21": "\u0014",
    "22": "\u0015",
    "23": "\u0016",
    "24": "\u0017",
    "25": "\u0018",
    "26": "\u0019",
    "27": "\u001a",
    "28": "\u001b",
    "29": "\u001c",
    "30": "\u001d",
    "31": "\u001e",
    "32": "\u001f",
    "33": " ",
    "34": "!",
    "35": "\"",
    "36": "#",
    "37": "$",
    "38": "%",
    "39": "&",
    "40": "'",
    "41": "(",
    "42": ")",
    "43": "*",
    "44": "+",
    "45": ",",
    "46": "-",
    "47": ".",
    "48": "/",
    "49": "0",
    "50": "1",
    "51": "2",
    "52": "3",
    "53": "4",
    "54": "5",
    "55": "6",
    "56": "7",
    "57": "8",
    "58": "9",
    "59": ":",
    "60": ";",
    "61": "<",
    "62": "=",
    "63": ">",
    "64": "?",
    "65": "@",
    "66": "A",
    "67": "B",
    "68": "C",
    "69": "D",
    "70": "E",
    "71": "F",
    "72": "G",
    "73": "H",
    "74": "I",
    "75": "J",
    "76": "K",
    "77": "L",
    "78": "M",
    "79": "N",
    "80": "O",
    "81": "P",
    "82": "Q",
    "83": "R",
    "84": "S",
    "85": "T",
    "86": "U",
    "87": "V",
    "88": "W",
    "89": "X",
    "90": "Y",
    "91": "Z",
    "92": "[",
    "93": "\\",
    "94": "]",
    "95": "^",
    "96": "_",
    "97": "`",
    "98": "a",
    "99": "b",
    "100": "c",
    "101": "d",
    "102": "e",
    "103": "f",
    "104": "g",
    "105": "h",
    "106": "i",
    "107": "j",
    "108": "k",
    "109": "l",
    "110": "m",
    "111": "n",
    "112": "o",
    "113": "p",
    "114": "q",
    "115": "r",
    "116": "s",
    "117": "t",
    "118": "u",
    "119": "v",
    "120": "w",
    "121": "x",
    "122": "y",
    "123": "z",
    "124": "{",
    "125": "|",
    "126": "}",
    "127": "~",
    "128": "\u007f",
    "129": [
        128
    ],
    "130": [
        129
    ],
    "131": [
        130
    ],
    "132": [
        131
    ],
    "133": [
        132
    ],
    "134": [
        133
    ],
    "135": [
        134
    ],
    "136": [
        135
    ],
    "137": [
        136
    ],
    "138": [
        137
    ],
    "139": [
        138
    ],
    "140": [
        139
    ],
    "141": [
        140
    ],
    "142": [
        141
    ],
    "143": [
        142
    ],
    "144": [
        143
    ],
    "145": [
        144
    ],
    "146": [
        145
    ],
    "147": [
        146
    ],
    "148": [
        147
    ],
    "149": [
        148
    ],
    "150": [
        149
    ],
    "151": [
        150
    ],
    "152": [
        151
    ],
    "153": [
        152
    ],
    "154": [
        153
    ],
    "155": [
        154
    ],
    "156": [
        155
    ],
    "157": [
        156
    ],
    "158": [
        157
    ],
    "159": [
        158
    ],
    "160": [
        159
    ],
    "161": [
        160
    ],
    "162": [
        161
    ],
    "163": [
        162
    ],
    "164": [
        163
    ],
    "165": [
        164
    ],
    "166": [
        165
    ],
    "167": [
        166
    ],
    "168": [
        167
    ],
    "169": [
        168
    ],
    "170": [
        169
    ],
    "171": [
        170
    ],
    "172": [
        171
    ],
    "173": [
        172
    ],
    "174": [
        173
    ],
    "175": [
        174
    ],
    "176": [
        175
    ],
    "177": [
        176
    ],
    "178": [
        177
    ],
    "179": [
        178
    ],
    "180": [
        179
    ],
    "181": [
        180
    ],
    "182": [
        181
    ],
    "183": [
        182
    ],
    "184": [
        183
    ],
    "185": [
        184
    ],
    "186": [
        185
    ],
    "187": [
        186
    ],
    "188": [
        187
    ],
    "189": [
        188
    ],
    "190": [
        189
    ],
    "191": [
        190
    ],
    "192": [
        191
    ],
    "193": [
        192
    ],
    "194": [
        193
    ],
    "195": [
        194
    ],
    "196": [
        195
    ],
    "197": [
        196
    ],
    "198": [
        197
    ],
    "199": [
        198
    ],
    "200": [
        199
    ],
    "201": [
        200
    ],
    "202": [
        201
    ],
    "203": [
        202
    ],
    "204": [
        203
    ],
    "205": [
        204
    ],
    "206": [
        205
    ],
    "207": [
        206
    ],
    "208": [
        207
    ],
    "209": [
        208
    ],
    "210": [
        209
    ],
    "211": [
        210
    ],
    "212": [
        211
    ],
    "213": [
        212
    ],
    "214": [
        213
    ],
    "215": [
        214
    ],
    "216": [
        215
    ],
    "217": [
        216
    ],
    "218": [
        217
    ],
    "219": [
        218
    ],
    "220": [
        219
    ],
    "221": [
        220
    ],
    "222": [
        221
    ],
    "223": [
        222
    ],
    "224": [
        223
    ],
    "225": [
        224
    ],
    "226": [
        225
    ],
    "227": [
        226
    ],
    "228": [
        227
    ],
    "229": [
        228
    ],
    "230": [
        229
    ],
    "231": [
        230
    ],
    "232": [
        231
    ],
    "233": [
        232
    ],
    "234": [
        233
    ],
    "235": [
        234
    ],
    "236": [
        235
    ],
    "237": [
        236
    ],
    "238": [
        237
    ],
    "239": [
        238
    ],
    "240": [
        239
    ],
    "241": [
        240
    ],
    "242": [
        241
    ],
    "243": [
        242
    ],
    "244": [
        243
    ],
    "245": [
        244
    ],
    "246": [
        245
    ],
    "247": [
        246
    ],
    "248": [
        247
    ],
    "249": [
        248
    ],
    "250": [
        249
    ],
    "251": [
        250
    ],
    "252": [
        251
    ],
    "253": [
        252
    ],
    "254": [
        253
    ],
    "255": [
        254
    ],
    "256": [
        255
    ],
    "257": "\t\t",
    "258": "\t\n",
    "259": "\t ",
    "260": "\n\t",
    "261": "\n\n",
    "262": "\n ",
    "263": "\r\n",
    "264": " \t",
    "265": " \n",
    "266": " \r",
    "267": "  ",
    "268": " !",
    "269": " \"",
    "270": " #",
    "271": " $",
    "272": " %",
    "273": " &",
    "274": " '",
    "275": " (",
    "276": " )",
    "277": " *",
    "278": " +",
    "279": " ,",
    "280": " -",
    "281": " .",
    "282": " /",
    "283": " 0",
    "284": " 1",
    "285": " 2",
    "286": " 3",
    "287": " 4",
    "288": " 5",
    "289": " 6",
    "290": " 7",
    "291": " 8",
    "292": " 9",
    "293": " :",
    "294": " ;",
    "295": " <",
    "296": " =",
    "297": " >",
    "298": " ?",
    "299": " @",
    "300": " A",
    "301": " B",
    "302": " C",
    "303": " D",
    "304": " E",
    "305": " F",
    "306": " G",
    "307": " H",
    "308": " I",
    "309": " J",
    "310": " K",
    "311": " L",
    "312": " M",
    "313": " N",
    "314": " O",
    "315": " P",
    "316": " Q",
    "317": " R",
    "318": " S",
    "319": " T",
    "320": " U",
    "321": " V",
    "322": " W",
    "323": " X",
    "324": " Y",
    "325": " Z",
    "326": " [",
    "327": " \\",
    "328": " ]",
    "329": " ^",
    "330": " _",
    "331": " `",
    "332": " a",
    "333": " b",
    "334": " c",
    "335": " d",
    "336": " e",
    "337": " f",
    "338": " g",
    "339": " h",
    "340": " i",
    "341": " j",
    "342": " k",
    "343": " l",
    "344": " m",
    "345": " n",
    "346": " o",
    "347": " p",
    "348": " q",
    "349": " r",
    "350": " s",
    "351": " t",
    "352": " u",
    "353": " v",
    "354": " w",
    "355": " x",
    "356": " y",
    "357": " z",
    "358": " {",
    "359": " |",
    "360": " }",
    "361": " ~",
    "362": "!!",
    "363": "!\"",
    "364": "!'",
    "365": "!(",
    "366": "!)",
    "367": "!,",
    "368": "!.",
    "369": "!/",
    "370": "!=",
    "371": "!?",
    "372": "![",
    "373": "!\\",
    "374": "\"\"",
    "375": "\"#",
    "376": "\"$",
    "377": "\"%",
    "378": "\"&",
    "379": "\"'",
    "380": "\"(",
    "381": "\")",
    "382": "\"*",
    "383": "\"+",
    "384": "\",",
    "385": "\"-",
    "386": "\".",
    "387": "\"/",
    "388": "\":",
    "389": "\";",
    "390": "\"<",
    "391": "\">",
    "392": "\"?",
    "393": "\"[",
    "394": "\"\\",
    "395": "\"]",
    "396": "\"_",
    "397": "\"`",
    "398": "\"{",
    "399": "\"}",
    "400": "#!",
    "401": "#\"",
    "402": "##",
    "403": "#'",
    "404": "#,",
    "405": "#.",
    "406": "#:",
    "407": "#{",
    "408": "$\"",
    "409": "$$",
    "410": "$'",
    "411": "$(",
    "412": "$,",
    "413": "$.",
    "414": "$/",
    "415": "$:",
    "416": "$;",
    "417": "$\\",
    "418": "$_",
    "419": "${",
    "420": "%\"",
    "421": "%%",
    "422": "%'",
    "423": "%(",
    "424": "%)",
    "425": "%,",
    "426": "%-",
    "427": "%.",
    "428": "%;",
    "429": "%=",
    "430": "%\\",
    "431": "&#",
    "432": "&&",
    "433": "&=",
    "434": "&\\",
    "435": "'\"",
    "436": "'#",
    "437": "'$",
    "438": "'%",
    "439": "''",
    "440": "'(",
    "441": "')",
    "442": "'*",
    "443": "'+",
    "444": "',",
    "445": "'-",
    "446": "'.",
    "447": "'/",
    "448": "':",
    "449": "';",
    "450": "'<",
    "451": "'>",
    "452": "'?",
    "453": "'[",
    "454": "'\\",
    "455": "']",
    "456": "'^",
    "457": "'_",
    "458": "'d",
    "459": "'m",
    "460": "'s",
    "461": "'t",
    "462": "'{",
    "463": "'}",
    "464": "(!",
    "465": "(\"",
    "466": "(#",
    "467": "($",
    "468": "(%",
    "469": "(&",
    "470": "('",
    "471": "((",
    "472": "()",
    "473": "(*",
    "474": "(+",
    "475": "(-",
    "476": "(.",
    "477": "(/",
    "478": "(:",
    "479": "(<",
    "480": "(?",
    "481": "(@",
    "482": "([",
    "483": "(\\",
    "484": "(_",
    "485": "(`",
    "486": "({",
    "487": "(|",
    "488": ")!",
    "489": ")\"",
    "490": ")$",
    "491": ")&",
    "492": ")'",
    "493": ")(",
    "494": "))",
    "495": ")*",
    "496": ")+",
    "497": "),",
    "498": ")-",
    "499": ").",
    "500": ")/",
    "501": "):",
    "502": ");",
    "503": ")<",
    "504": ")=",
    "505": ")>",
    "506": ")?",
    "507": ")[",
    "508": ")\\",
    "509": ")]",
    "510": ")^",
    "511": ")_",
    "512": ")`",
    "513": "){",
    "514": ")|",
    "515": ")}",
    "516": "*\"",
    "517": "*'",
    "518": "*(",
    "519": "*)",
    "520": "**",
    "521": "*,",
    "522": "*-",
    "523": "*.",
    "524": "*/",
    "525": "*:",
    "526": "*=",
    "527": "*>",
    "528": "*\\",
    "529": "*_",
    "530": "*}",
    "531": "+\"",
    "532": "+$",
    "533": "+'",
    "534": "+(",
    "535": "+)",
    "536": "++",
    "537": "+,",
    "538": "+-",
    "539": "+.",
    "540": "+/",
    "541": "+=",
    "542": "+[",
    "543": "+\\",
    "544": ",\"",
    "545": ",#",
    "546": ",$",
    "547": ",%",
    "548": ",'",
    "549": ",(",
    "550": ",)",
    "551": ",*",
    "552": ",,",
    "553": ",-",
    "554": ",.",
    "555": ",[",
    "556": ",\\",
    "557": ",_",
    "558": ",{",
    "559": "-\"",
    "560": "-$",
    "561": "-%",
    "562": "-'",
    "563": "-(",
    "564": "-)",
    "565": "-*",
    "566": "-+",
    "567": "-,",
    "568": "--",
    "569": "-.",
    "570": "-=",
    "571": "->",
    "572": "-[",
    "573": "-\\",
    "574": "-{",
    "575": ".\"",
    "576": ".$",
    "577": ".%",
    "578": ".'",
    "579": ".(",
    "580": ".)",
    "581": ".*",
    "582": ".+",
    "583": ".,",
    "584": ".-",
    "585": "..",
    "586": "./",
    "587": ".:",
    "588": ".;",
    "589": ".<",
    "590": ".=",
    "591": ".?",
    "592": ".[",
    "593": ".\\",
    "594": ".]",
    "595": "._",
    "596": ".|",
    "597": "/\"",
    "598": "/#",
    "599": "/$",
    "600": "/%",
    "601": "/'",
    "602": "/(",
    "603": "/)",
    "604": "/*",
    "605": "/+",
    "606": "/,",
    "607": "/-",
    "608": "/.",
    "609": "//",
    "610": "/:",
    "611": "/<",
    "612": "/>",
    "613": "/?",
    "614": "/@",
    "615": "/[",
    "616": "/\\",
    "617": "/_",
    "618": "/{",
    "619": "/~",
    "620": "00",
    "621": "01",
    "622": "02",
    "623": "03",
    "624": "04",
    "625": "05",
    "626": "06",
    "627": "07",
    "628": "08",
    "629": "09",
    "630": "10",
    "631": "11",
    "632": "12",
    "633": "13",
    "634": "14",
    "635": "15",
    "636": "16",
    "637": "17",
    "638": "18",
    "639": "19",
    "640": "20",
    "641": "21",
    "642": "22",
    "643": "23",
    "644": "24",
    "645": "25",
    "646": "26",
    "647": "27",
    "648": "28",
    "649": "29",
    "650": "30",
    "651": "31",
    "652": "32",
    "653": "33",
    "654": "34",
    "655": "35",
    "656": "36",
    "657": "37",
    "658": "38",
    "659": "39",
    "660": "40",
    "661": "41",
    "662": "42",
    "663": "43",
    "664": "44",
    "665": "45",
    "666": "46",
    "667": "47",
    "668": "48",
    "669": "49",
    "670": "50",
    "671": "51",
    "672": "52",
    "673": "53",
    "674": "54",
    "675": "55",
    "676": "56",
    "677": "57",
    "678": "58",
    "679": "59",
    "680": "60",
    "681": "61",
    "682": "62",
    "683": "63",
    "684": "64",
    "685": "65",
    "686": "66",
    "687": "67",
    "688": "68",
    "689": "69",
    "690": "70",
    "691": "71",
    "692": "72",
    "693": "73",
    "694": "74",
    "695": "75",
    "696": "76",
    "697": "77",
    "698": "78",
    "699": "79",
    "700": "80",
    "701": "81",
    "702": "82",
    "703": "83",
    "704": "84",
    "705": "85",
    "706": "86",
    "707": "87",
    "708": "88",
    "709": "89",
    "710": "90",
    "711": "91",
    "712": "92",
    "713": "93",
    "714": "94",
    "715": "95",
    "716": "96",
    "717": "97",
    "718": "98",
    "719": "99",
    "720": ":\"",
    "721": ":#",
    "722": ":$",
    "723": ":%",
    "724": ":'",
    "725": ":(",
    "726": ":)",
    "727": ":*",
    "728": ":,",
    "729": ":-",
    "730": ":.",
    "731": ":/",
    "732": "::",
    "733": ":=",
    "734": ":@",
    "735": ":[",
    "736": ":\\",
    "737": ":]",
    "738": ":_",
    "739": ":`",
    "740": ":{",
    "741": ";\"",
    "742": ";&",
    "743": ";'",
    "744": ";-",
    "745": ";/",
    "746": ";;",
    "747": ";<",
    "748": ";\\",
    "749": ";}",
    "750": "<!",
    "751": "<%",
    "752": "<'",
    "753": "<-",
    "754": "</",
    "755": "<<",
    "756": "<=",
    "757": "<>",
    "758": "<?",
    "759": "<\\",
    "760": "<_",
    "761": "=\"",
    "762": "=#",
    "763": "=$",
    "764": "=%",
    "765": "=&",
    "766": "='",
    "767": "=(",
    "768": "=-",
    "769": "=.",
    "770": "=/",
    "771": "=<",
    "772": "==",
    "773": "=>",
    "774": "=[",
    "775": "=\\",
    "776": "=_",
    "777": "=`",
    "778": "={",
    "779": ">\"",
    "780": ">&",
    "781": ">'",
    "782": ">(",
    "783": ">)",
    "784": ">,",
    "785": ">-",
    "786": ">.",
    "787": ">/",
    "788": ">:",
    "789": ">;",
    "790": "><",
    "791": ">=",
    "792": ">>",
    "793": ">[",
    "794": ">\\",
    "795": ">]",
    "796": ">`",
    "797": ">{",
    "798": "?!",
    "799": "?\"",
    "800": "?'",
    "801": "?(",
    "802": "?)",
    "803": "?,",
    "804": "?.",
    "805": "?:",
    "806": "?>",
    "807": "??",
    "808": "?\\",
    "809": "@\"",
    "810": "@@",
    "811": "@{",
    "812": "AA",
    "813": "AB",
    "814": "AC",
    "815": "AD",
    "816": "AE",
    "817": "AF",
    "818": "AG",
    "819": "AH",
    "820": "AI",
    "821": "AJ",
    "822": "AK",
    "823": "AL",
    "824": "AM",
    "825": "AN",
    "826": "AO",
    "827": "AP",
    "828": "AQ",
    "829": "AR",
    "830": "AS",
    "831": "AT",
    "832": "AU",
    "833": "AV",
    "834": "AW",
    "835": "AX",
    "836": "AY",
    "837": "AZ",
    "838": "Ab",
    "839": "Ac",
    "840": "Ad",
    "841": "Af",
    "842": "Ag",
    "843": "Ah",
    "844": "Ai",
    "845": "Aj",
    "846": "Ak",
    "847": "Al",
    "848": "Am",
    "849": "An",
    "850": "Ao",
    "851": "Ap",
    "852": "Ar",
    "853": "As",
    "854": "At",
    "855": "Au",
    "856": "Av",
    "857": "Aw",
    "858": "Ax",
    "859": "Ay",
    "860": "Az",
    "861": "BA",
    "862": "BB",
    "863": "BC",
    "864": "BD",
    "865": "BE",
    "866": "BF",
    "867": "BG",
    "868": "BH",
    "869": "BI",
    "870": "BJ",
    "871": "BK",
    "872": "BL",
    "873": "BM",
    "874": "BN",
    "875": "BO",
    "876": "BP",
    "877": "BR",
    "878": "BS",
    "879": "BT",
    "880": "BU",
    "881": "BV",
    "882": "BW",
    "883": "BY",
    "884": "BZ",
    "885": "Ba",
    "886": "Be",
    "887": "Bg",
    "888": "Bi",
    "889": "Bl",
    "890": "Bo",
    "891": "Br",
    "892": "Bs",
    "893": "Bu",
    "894": "By",
    "895": "CA",
    "896": "CB",
    "897": "CC",
    "898": "CD",
    "899": "CE",
    "900": "CF",
    "901": "CG",
    "902": "CH",
    "903": "CI",
    "904": "CK",
    "905": "CL",
    "906": "CM",
    "907": "CN",
    "908": "CO",
    "909": "CP",
    "910": "CR",
    "911": "CS",
    "912": "CT",
    "913": "CU",
    "914": "CV",
    "915": "CW",
    "916": "CX",
    "917": "CY",
    "918": "Ca",
    "919": "Cb",
    "920": "Cd",
    "921": "Ce",
    "922": "Ch",
    "923": "Ci",
    "924": "Cl",
    "925": "Co",
    "926": "Cp",
    "927": "Cr",
    "928": "Cs",
    "929": "Ct",
    "930": "Cu",
    "931": "Cy",
    "932": "DA",
    "933": "DB",
    "934": "DC",
    "935": "DD",
    "936": "DE",
    "937": "DF",
    "938": "DG",
    "939": "DH",
    "940": "DI",
    "941": "DJ",
    "942": "DK",
    "943": "DL",
    "944": "DM",
    "945": "DN",
    "946": "DO",
    "947": "DP",
    "948": "DQ",
    "949": "DR",
    "950": "DS",
    "951": "DT",
    "952": "DU",
    "953": "DV",
    "954": "DW",
    "955": "DX",
    "956": "DY",
    "957": "Da",
    "958": "Db",
    "959": "De",
    "960": "Di",
    "961": "Do",
    "962": "Dr",
    "963": "Ds",
    "964": "Du",
    "965": "Dy",
    "966": "EA",
    "967": "EB",
    "968": "EC",
    "969": "ED",
    "970": "EE",
    "971": "EF",
    "972": "EG",
    "973": "EH",
    "974": "EI",
    "975": "EK",
    "976": "EL",
    "977": "EM",
    "978": "EN",
    "979": "EO",
    "980": "EP",
    "981": "EQ",
    "982": "ER",
    "983": "ES",
    "984": "ET",
    "985": "EU",
    "986": "EV",
    "987": "EW",
    "988": "EX",
    "989": "EY",
    "990": "Ec",
    "991": "Ed",
    "992": "Eg",
    "993": "Eh",
    "994": "El",
    "995": "Em",
    "996": "En",
    "997": "Ep",
    "998": "Eq",
    "999": "Er",
    "1000": "Es",
    "1001": "Et",
    "1002": "Eu",
    "1003": "Ev",
    "1004": "Ex",
    "1005": "Ey",
    "1006": "FA",
    "1007": "FB",
    "1008": "FC",
    "1009": "FD",
    "1010": "FE",
    "1011": "FF",
    "1012": "FG",
    "1013": "FH",
    "1014": "FI",
    "1015": "FK",
    "1016": "FL",
    "1017": "FM",
    "1018": "FN",
    "1019": "FO",
    "1020": "FP",
    "1021": "FR",
    "1022": "FS",
    "1023": "FT",
    "1024": "FU",
    "1025": "FV",
    "1026": "FW",
    "1027": "FX",
    "1028": "FY",
    "1029": "Fa",
    "1030": "Fc",
    "1031": "Fe",
    "1032": "Fi",
    "1033": "Fl",
    "1034": "Fn",
    "1035": "Fo",
    "1036": "Fr",
    "1037": "Fs",
    "1038": "Fu",
    "1039": "GA",
    "1040": "GB",
    "1041": "GC",
    "1042": "GD",
    "1043": "GE",
    "1044": "GF",
    "1045": "GG",
    "1046": "GH",
    "1047": "GI",
    "1048": "GL",
    "1049": "GM",
    "1050": "GN",
    "1051": "GO",
    "1052": "GP",
    "1053": "GR",
    "1054": "GS",
    "1055": "GT",
    "1056": "GU",
    "1057": "GV",
    "1058": "GW",
    "1059": "GY",
    "1060": "Ga",
    "1061": "Gb",
    "1062": "Ge",
    "1063": "Gh",
    "1064": "Gi",
    "1065": "Gl",
    "1066": "Go",
    "1067": "Gr",
    "1068": "Gs",
    "1069": "Gu",
    "1070": "Gy",
    "1071": "HA",
    "1072": "HB",
    "1073": "HC",
    "1074": "HD",
    "1075": "HE",
    "1076": "HF",
    "1077": "HG",
    "1078": "HH",
    "1079": "HI",
    "1080": "HK",
    "1081": "HL",
    "1082": "HM",
    "1083": "HN",
    "1084": "HO",
    "1085": "HP",
    "1086": "HQ",
    "1087": "HR",
    "1088": "HS",
    "1089": "HT",
    "1090": "HU",
    "1091": "HV",
    "1092": "HW",
    "1093": "HY",
    "1094": "Ha",
    "1095": "He",
    "1096": "Hg",
    "1097": "Hi",
    "1098": "Ho",
    "1099": "Hp",
    "1100": "Hs",
    "1101": "Hu",
    "1102": "Hy",
    "1103": "Hz",
    "1104": "IA",
    "1105": "IB",
    "1106": "IC",
    "1107": "ID",
    "1108": "IE",
    "1109": "IF",
    "1110": "IG",
    "1111": "IH",
    "1112": "II",
    "1113": "IJ",
    "1114": "IK",
    "1115": "IL",
    "1116": "IM",
    "1117": "IN",
    "1118": "IO",
    "1119": "IP",
    "1120": "IQ",
    "1121": "IR",
    "1122": "IS",
    "1123": "IT",
    "1124": "IU",
    "1125": "IV",
    "1126": "IW",
    "1127": "IX",
    "1128": "IZ",
    "1129": "Id",
    "1130": "If",
    "1131": "Ig",
    "1132": "Ii",
    "1133": "Ik",
    "1134": "Il",
    "1135": "Im",
    "1136": "In",
    "1137": "Io",
    "1138": "Ip",
    "1139": "Ir",
    "1140": "Is",
    "1141": "It",
    "1142": "Iz",
    "1143": "JA",
    "1144": "JB",
    "1145": "JC",
    "1146": "JD",
    "1147": "JE",
    "1148": "JF",
    "1149": "JI",
    "1150": "JJ",
    "1151": "JK",
    "1152": "JM",
    "1153": "JO",
    "1154": "JP",
    "1155": "JR",
    "1156": "JS",
    "1157": "JT",
    "1158": "JU",
    "1159": "Ja",
    "1160": "Je",
    "1161": "Ji",
    "1162": "Jo",
    "1163": "Js",
    "1164": "Ju",
    "1165": "Jy",
    "1166": "KA",
    "1167": "KB",
    "1168": "KC",
    "1169": "KD",
    "1170": "KE",
    "1171": "KF",
    "1172": "KG",
    "1173": "KH",
    "1174": "KI",
    "1175": "KK",
    "1176": "KL",
    "1177": "KM",
    "1178": "KN",
    "1179": "KO",
    "1180": "KP",
    "1181": "KR",
    "1182": "KS",
    "1183": "KT",
    "1184": "KV",
    "1185": "KW",
    "1186": "KY",
    "1187": "Ka",
    "1188": "Ke",
    "1189": "Kh",
    "1190": "Ki",
    "1191": "Kn",
    "1192": "Ko",
    "1193": "Kr",
    "1194": "Ku",
    "1195": "Ky",
    "1196": "LA",
    "1197": "LB",
    "1198": "LC",
    "1199": "LD",
    "1200": "LE",
    "1201": "LF",
    "1202": "LG",
    "1203": "LH",
    "1204": "LI",
    "1205": "LL",
    "1206": "LM",
    "1207": "LN",
    "1208": "LO",
    "1209": "LP",
    "1210": "LR",
    "1211": "LS",
    "1212": "LT",
    "1213": "LU",
    "1214": "LV",
    "1215": "LW",
    "1216": "LY",
    "1217": "La",
    "1218": "Le",
    "1219": "Li",
    "1220": "Ll",
    "1221": "Ln",
    "1222": "Lo",
    "1223": "Lt",
    "1224": "Lu",
    "1225": "Ly",
    "1226": "MA",
    "1227": "MB",
    "1228": "MC",
    "1229": "MD",
    "1230": "ME",
    "1231": "MF",
    "1232": "MG",
    "1233": "MH",
    "1234": "MI",
    "1235": "MK",
    "1236": "ML",
    "1237": "MM",
    "1238": "MN",
    "1239": "MO",
    "1240": "MP",
    "1241": "MQ",
    "1242": "MR",
    "1243": "MS",
    "1244": "MT",
    "1245": "MU",
    "1246": "MV",
    "1247": "MW",
    "1248": "MX",
    "1249": "MY",
    "1250": "Ma",
    "1251": "Mb",
    "1252": "Mc",
    "1253": "Me",
    "1254": "Mg",
    "1255": "Mi",
    "1256": "Mj",
    "1257": "Mn",
    "1258": "Mo",
    "1259": "Mp",
    "1260": "Mr",
    "1261": "Ms",
    "1262": "Mt",
    "1263": "Mu",
    "1264": "My",
    "1265": "Mz",
    "1266": "NA",
    "1267": "NB",
    "1268": "NC",
    "1269": "ND",
    "1270": "NE",
    "1271": "NF",
    "1272": "NG",
    "1273": "NH",
    "1274": "NI",
    "1275": "NJ",
    "1276": "NK",
    "1277": "NL",
    "1278": "NM",
    "1279": "NN",
    "1280": "NO",
    "1281": "NP",
    "1282": "NR",
    "1283": "NS",
    "1284": "NT",
    "1285": "NU",
    "1286": "NV",
    "1287": "NW",
    "1288": "NX",
    "1289": "NY",
    "1290": "NZ",
    "1291": "Na",
    "1292": "Nb",
    "1293": "Nd",
    "1294": "Ne",
    "1295": "Ng",
    "1296": "Ni",
    "1297": "No",
    "1298": "Nr",
    "1299": "Ns",
    "1300": "Nu",
    "1301": "Nx",
    "1302": "Ny",
    "1303": "Nz",
    "1304": "OA",
    "1305": "OB",
    "1306": "OC",
    "1307": "OD",
    "1308": "OE",
    "1309": "OF",
    "1310": "OG",
    "1311": "OH",
    "1312": "OI",
    "1313": "OK",
    "1314": "OL",
    "1315": "OM",
    "1316": "ON",
    "1317": "OO",
    "1318": "OP",
    "1319": "OR",
    "1320": "OS",
    "1321": "OT",
    "1322": "OU",
    "1323": "OV",
    "1324": "OW",
    "1325": "OX",
    "1326": "OY",
    "1327": "Ob",
    "1328": "Oc",
    "1329": "Od",
    "1330": "Of",
    "1331": "Oh",
    "1332": "Oi",
    "1333": "Ok",
    "1334": "Ol",
    "1335": "Om",
    "1336": "On",
    "1337": "Op",
    "1338": "Or",
    "1339": "Os",
    "1340": "Ot",
    "1341": "Ox",
    "1342": "PA",
    "1343": "PB",
    "1344": "PC",
    "1345": "PD",
    "1346": "PE",
    "1347": "PF",
    "1348": "PG",
    "1349": "PH",
    "1350": "PI",
    "1351": "PK",
    "1352": "PL",
    "1353": "PM",
    "1354": "PN",
    "1355": "PO",
    "1356": "PP",
    "1357": "PR",
    "1358": "PS",
    "1359": "PT",
    "1360": "PU",
    "1361": "PV",
    "1362": "PW",
    "1363": "PY",
    "1364": "Pa",
    "1365": "Pb",
    "1366": "Pe",
    "1367": "Ph",
    "1368": "Pi",
    "1369": "Pl",
    "1370": "Po",
    "1371": "Pr",
    "1372": "Ps",
    "1373": "Pt",
    "1374": "Pu",
    "1375": "Px",
    "1376": "Py",
    "1377": "QA",
    "1378": "QB",
    "1379": "QC",
    "1380": "QE",
    "1381": "QI",
    "1382": "QL",
    "1383": "QM",
    "1384": "QP",
    "1385": "QQ",
    "1386": "QR",
    "1387": "QS",
    "1388": "QT",
    "1389": "QU",
    "1390": "Qi",
    "1391": "Qt",
    "1392": "Qu",
    "1393": "RA",
    "1394": "RB",
    "1395": "RC",
    "1396": "RD",
    "1397": "RE",
    "1398": "RF",
    "1399": "RG",
    "1400": "RH",
    "1401": "RI",
    "1402": "RK",
    "1403": "RL",
    "1404": "RM",
    "1405": "RN",
    "1406": "RO",
    "1407": "RP",
    "1408": "RR",
    "1409": "RS",
    "1410": "RT",
    "1411": "RU",
    "1412": "RV",
    "1413": "RW",
    "1414": "RX",
    "1415": "RY",
    "1416": "Ra",
    "1417": "Re",
    "1418": "Rh",
    "1419": "Ri",
    "1420": "Ro",
    "1421": "Rp",
    "1422": "Rs",
    "1423": "Ru",
    "1424": "Rv",
    "1425": "Rx",
    "1426": "Ry",
    "1427": "SA",
    "1428": "SB",
    "1429": "SC",
    "1430": "SD",
    "1431": "SE",
    "1432": "SF",
    "1433": "SG",
    "1434": "SH",
    "1435": "SI",
    "1436": "SK",
    "1437": "SL",
    "1438": "SM",
    "1439": "SN",
    "1440": "SO",
    "1441": "SP",
    "1442": "SQ",
    "1443": "SR",
    "1444": "SS",
    "1445": "ST",
    "1446": "SU",
    "1447": "SV",
    "1448": "SW",
    "1449": "SY",
    "1450": "SZ",
    "1451": "Sa",
    "1452": "Sb",
    "1453": "Sc",
    "1454": "Se",
    "1455": "Sh",
    "1456": "Si",
    "1457": "Sk",
    "1458": "Sl",
    "1459": "Sm",
    "1460": "Sn",
    "1461": "So",
    "1462": "Sp",
    "1463": "Sq",
    "1464": "Sr",
    "1465": "St",
    "1466": "Su",
    "1467": "Sw",
    "1468": "Sy",
    "1469": "Sz",
    "1470": "TA",
    "1471": "TB",
    "1472": "TC",
    "1473": "TD",
    "1474": "TE",
    "1475": "TF",
    "1476": "TG",
    "1477": "TH",
    "1478": "TI",
    "1479": "TK",
    "1480": "TL",
    "1481": "TM",
    "1482": "TN",
    "1483": "TO",
    "1484": "TP",
    "1485": "TR",
    "1486": "TS",
    "1487": "TT",
    "1488": "TU",
    "1489": "TV",
    "1490": "TW",
    "1491": "TX",
    "1492": "TY",
    "1493": "TZ",
    "1494": "Ta",
    "1495": "Tc",
    "1496": "Te",
    "1497": "Th",
    "1498": "Ti",
    "1499": "Tk",
    "1500": "To",
    "1501": "Tp",
    "1502": "Tr",
    "1503": "Ts",
    "1504": "Tu",
    "1505": "Tw",
    "1506": "Tx",
    "1507": "Ty",
    "1508": "UA",
    "1509": "UB",
    "1510": "UC",
    "1511": "UD",
    "1512": "UE",
    "1513": "UF",
    "1514": "UG",
    "1515": "UH",
    "1516": "UI",
    "1517": "UK",
    "1518": "UL",
    "1519": "UM",
    "1520": "UN",
    "1521": "UP",
    "1522": "UR",
    "1523": "US",
    "1524": "UT",
    "1525": "UU",
    "1526": "UV",
    "1527": "UX",
    "1528": "UY",
    "1529": "Ub",
    "1530": "Uh",
    "1531": "Ui",
    "1532": "Uk",
    "1533": "Ul",
    "1534": "Um",
    "1535": "Un",
    "1536": "Up",
    "1537": "Ur",
    "1538": "Us",
    "1539": "Ut",
    "1540": "VA",
    "1541": "VB",
    "1542": "VC",
    "1543": "VD",
    "1544": "VE",
    "1545": "VF",
    "1546": "VG",
    "1547": "VH",
    "1548": "VI",
    "1549": "VK",
    "1550": "VL",
    "1551": "VM",
    "1552": "VN",
    "1553": "VO",
    "1554": "VP",
    "1555": "VR",
    "1556": "VS",
    "1557": "VT",
    "1558": "VV",
    "1559": "Va",
    "1560": "Ve",
    "1561": "Vi",
    "1562": "Vm",
    "1563": "Vo",
    "1564": "Vs",
    "1565": "Vu",
    "1566": "Vy",
    "1567": "WA",
    "1568": "WB",
    "1569": "WC",
    "1570": "WD",
    "1571": "WE",
    "1572": "WF",
    "1573": "WG",
    "1574": "WH",
    "1575": "WI",
    "1576": "WK",
    "1577": "WL",
    "1578": "WM",
    "1579": "WN",
    "1580": "WO",
    "1581": "WP",
    "1582": "WR",
    "1583": "WS",
    "1584": "WT",
    "1585": "WV",
    "1586": "WW",
    "1587": "WX",
    "1588": "Wa",
    "1589": "We",
    "1590": "Wh",
    "1591": "Wi",
    "1592": "Wo",
    "1593": "Wr",
    "1594": "Ws",
    "1595": "Wy",
    "1596": "XA",
    "1597": "XB",
    "1598": "XC",
    "1599": "XD",
    "1600": "XF",
    "1601": "XG",
    "1602": "XI",
    "1603": "XL",
    "1604": "XM",
    "1605": "XP",
    "1606": "XR",
    "1607": "XS",
    "1608": "XT",
    "1609": "XV",
    "1610": "XX",
    "1611": "XY",
    "1612": "Xi",
    "1613": "YA",
    "1614": "YC",
    "1615": "YE",
    "1616": "YL",
    "1617": "YM",
    "1618": "YN",
    "1619": "YO",
    "1620": "YP",
    "1621": "YR",
    "1622": "YS",
    "1623": "YT",
    "1624": "YW",
    "1625": "YX",
    "1626": "YY",
    "1627": "Ya",
    "1628": "Ye",
    "1629": "Yo",
    "1630": "Yu",
    "1631": "ZA",
    "1632": "ZE",
    "1633": "ZH",
    "1634": "ZO",
    "1635": "ZT",
    "1636": "ZW",
    "1637": "ZX",
    "1638": "ZY",
    "1639": "ZZ",
    "1640": "Za",
    "1641": "Ze",
    "1642": "Zh",
    "1643": "Zn",
    "1644": "[\"",
    "1645": "[$",
    "1646": "['",
    "1647": "[(",
    "1648": "[*",
    "1649": "[,",
    "1650": "[-",
    "1651": "[/",
    "1652": "[:",
    "1653": "[@",
    "1654": "[[",
    "1655": "[\\",
    "1656": "[]",
    "1657": "[^",
    "1658": "[_",
    "1659": "[{",
    "1660": "\\\"",
    "1661": "\\$",
    "1662": "\\%",
    "1663": "\\'",
    "1664": "\\(",
    "1665": "\\)",
    "1666": "\\,",
    "1667": "\\-",
    "1668": "\\.",
    "1669": "\\/",
    "1670": "\\;",
    "1671": "\\<",
    "1672": "\\[",
    "1673": "\\\\",
    "1674": "\\]",
    "1675": "\\_",
    "1676": "\\{",
    "1677": "\\}",
    "1678": "]\"",
    "1679": "]$",
    "1680": "]'",
    "1681": "](",
    "1682": "])",
    "1683": "]*",
    "1684": "]+",
    "1685": "],",
    "1686": "]-",
    "1687": "].",
    "1688": "]/",
    "1689": "]:",
    "1690": "];",
    "1691": "]<",
    "1692": "]=",
    "1693": "]>",
    "1694": "]?",
    "1695": "][",
    "1696": "]\\",
    "1697": "]]",
    "1698": "]_",
    "1699": "]{",
    "1700": "]|",
    "1701": "]}",
    "1702": "^(",
    "1703": "^*",
    "1704": "^-",
    "1705": "^\\",
    "1706": "^^",
    "1707": "^{",
    "1708": "_\"",
    "1709": "_%",
    "1710": "_'",
    "1711": "_(",
    "1712": "_)",
    "1713": "_*",
    "1714": "_,",
    "1715": "_-",
    "1716": "_.",
    "1717": "_:",
    "1718": "_;",
    "1719": "_<",
    "1720": "_>",
    "1721": "_[",
    "1722": "_\\",
    "1723": "_]",
    "1724": "__",
    "1725": "_{",
    "1726": "`)",
    "1727": "`,",
    "1728": "`.",
    "1729": "`:",
    "1730": "`;",
    "1731": "`\\",
    "1732": "``",
    "1733": "aa",
    "1734": "ab",
    "1735": "ac",
    "1736": "ad",
    "1737": "ae",
    "1738": "af",
    "1739": "ag",
    "1740": "ah",
    "1741": "ai",
    "1742": "aj",
    "1743": "ak",
    "1744": "al",
    "1745": "am",
    "1746": "an",
    "1747": "ao",
    "1748": "ap",
    "1749": "aq",
    "1750": "ar",
    "1751": "as",
    "1752": "at",
    "1753": "au",
    "1754": "av",
    "1755": "aw",
    "1756": "ax",
    "1757": "ay",
    "1758": "az",
    "1759": "ba",
    "1760": "bb",
    "1761": "bc",
    "1762": "bd",
    "1763": "be",
    "1764": "bf",
    "1765": "bg",
    "1766": "bh",
    "1767": "bi",
    "1768": "bj",
    "1769": "bk",
    "1770": "bl",
    "1771": "bm",
    "1772": "bn",
    "1773": "bo",
    "1774": "bp",
    "1775": "br",
    "1776": "bs",
    "1777": "bt",
    "1778": "bu",
    "1779": "bv",
    "1780": "bw",
    "1781": "bx",
    "1782": "by",
    "1783": "bz",
    "1784": "ca",
    "1785": "cb",
    "1786": "cc",
    "1787": "cd",
    "1788": "ce",
    "1789": "cf",
    "1790": "cg",
    "1791": "ch",
    "1792": "ci",
    "1793": "cj",
    "1794": "ck",
    "1795": "cl",
    "1796": "cm",
    "1797": "cn",
    "1798": "co",
    "1799": "cp",
    "1800": "cq",
    "1801": "cr",
    "1802": "cs",
    "1803": "ct",
    "1804": "cu",
    "1805": "cv",
    "1806": "cw",
    "1807": "cx",
    "1808": "cy",
    "1809": "cz",
    "1810": "dB",
    "1811": "dL",
    "1812": "dT",
    "1813": "dX",
    "1814": "da",
    "1815": "db",
    "1816": "dc",
    "1817": "dd",
    "1818": "de",
    "1819": "df",
    "1820": "dg",
    "1821": "dh",
    "1822": "di",
    "1823": "dj",
    "1824": "dk",
    "1825": "dl",
    "1826": "dm",
    "1827": "dn",
    "1828": "do",
    "1829": "dp",
    "1830": "dq",
    "1831": "dr",
    "1832": "ds",
    "1833": "dt",
    "1834": "du",
    "1835": "dv",
    "1836": "dw",
    "1837": "dx",
    "1838": "dy",
    "1839": "dz",
    "1840": "ea",
    "1841": "eb",
    "1842": "ec",
    "1843": "ed",
    "1844": "ee",
    "1845": "ef",
    "1846": "eg",
    "1847": "eh",
    "1848": "ei",
    "1849": "ej",
    "1850": "ek",
    "1851": "el",
    "1852": "em",
    "1853": "en",
    "1854": "eo",
    "1855": "ep",
    "1856": "eq",
    "1857": "er",
    "1858": "es",
    "1859": "et",
    "1860": "eu",
    "1861": "ev",
    "1862": "ew",
    "1863": "ex",
    "1864": "ey",
    "1865": "ez",
    "1866": "fa",
    "1867": "fb",
    "1868": "fc",
    "1869": "fd",
    "1870": "fe",
    "1871": "ff",
    "1872": "fg",
    "1873": "fh",
    "1874": "fi",
    "1875": "fj",
    "1876": "fk",
    "1877": "fl",
    "1878": "fm",
    "1879": "fn",
    "1880": "fo",
    "1881": "fp",
    "1882": "fq",
    "1883": "fr",
    "1884": "fs",
    "1885": "ft",
    "1886": "fu",
    "1887": "fv",
    "1888": "fw",
    "1889": "fx",
    "1890": "fy",
    "1891": "ga",
    "1892": "gb",
    "1893": "gc",
    "1894": "gd",
    "1895": "ge",
    "1896": "gf",
    "1897": "gg",
    "1898": "gh",
    "1899": "gi",
    "1900": "gl",
    "1901": "gm",
    "1902": "gn",
    "1903": "go",
    "1904": "gp",
    "1905": "gr",
    "1906": "gs",
    "1907": "gt",
    "1908": "gu",
    "1909": "gv",
    "1910": "gw",
    "1911": "gx",
    "1912": "gy",
    "1913": "gz",
    "1914": "ha",
    "1915": "hb",
    "1916": "hc",
    "1917": "hd",
    "1918": "he",
    "1919": "hf",
    "1920": "hg",
    "1921": "hh",
    "1922": "hi",
    "1923": "hj",
    "1924": "hk",
    "1925": "hl",
    "1926": "hm",
    "1927": "hn",
    "1928": "ho",
    "1929": "hp",
    "1930": "hr",
    "1931": "hs",
    "1932": "ht",
    "1933": "hu",
    "1934": "hw",
    "1935": "hy",
    "1936": "hz",
    "1937": "ia",
    "1938": "ib",
    "1939": "ic",
    "1940": "id",
    "1941": "ie",
    "1942": "if",
    "1943": "ig",
    "1944": "ih",
    "1945": "ii",
    "1946": "ij",
    "1947": "ik",
    "1948": "il",
    "1949": "im",
    "1950": "in",
    "1951": "io",
    "1952": "ip",
    "1953": "iq",
    "1954": "ir",
    "1955": "is",
    "1956": "it",
    "1957": "iu",
    "1958": "iv",
    "1959": "iw",
    "1960": "ix",
    "1961": "iy",
    "1962": "iz",
    "1963": "ja",
    "1964": "jb",
    "1965": "jc",
    "1966": "jd",
    "1967": "je",
    "1968": "jh",
    "1969": "ji",
    "1970": "jj",
    "1971": "jk",
    "1972": "jl",
    "1973": "jm",
    "1974": "jn",
    "1975": "jo",
    "1976": "jp",
    "1977": "jq",
    "1978": "jr",
    "1979": "js",
    "1980": "jt",
    "1981": "ju",
    "1982": "jv",
    "1983": "kB",
    "1984": "ka",
    "1985": "kb",
    "1986": "kc",
    "1987": "kd",
    "1988": "ke",
    "1989": "kg",
    "1990": "kh",
    "1991": "ki",
    "1992": "kj",
    "1993": "kk",
    "1994": "kl",
    "1995": "km",
    "1996": "kn",
    "1997": "ko",
    "1998": "kp",
    "1999": "kr",
    "2000": "ks",
    "2001": "kt",
    "2002": "ku",
    "2003": "kv",
    "2004": "kw",
    "2005": "kx",
    "2006": "ky",
    "2007": "la",
    "2008": "lb",
    "2009": "lc",
    "2010": "ld",
    "2011": "le",
    "2012": "lf",
    "2013": "lg",
    "2014": "lh",
    "2015": "li",
    "2016": "lj",
    "2017": "lk",
    "2018": "ll",
    "2019": "lm",
    "2020": "ln",
    "2021": "lo",
    "2022": "lp",
    "2023": "lr",
    "2024": "ls",
    "2025": "lt",
    "2026": "lu",
    "2027": "lv",
    "2028": "lw",
    "2029": "lx",
    "2030": "ly",
    "2031": "lz",
    "2032": "mL",
    "2033": "mV",
    "2034": "ma",
    "2035": "mb",
    "2036": "mc",
    "2037": "md",
    "2038": "me",
    "2039": "mf",
    "2040": "mg",
    "2041": "mh",
    "2042": "mi",
    "2043": "mj",
    "2044": "mk",
    "2045": "ml",
    "2046": "mm",
    "2047": "mn",
    "2048": "mo",
    "2049": "mp",
    "2050": "mq",
    "2051": "mr",
    "2052": "ms",
    "2053": "mt",
    "2054": "mu",
    "2055": "mv",
    "2056": "mw",
    "2057": "mx",
    "2058": "my",
    "2059": "na",
    "2060": "nb",
    "2061": "nc",
    "2062": "nd",
    "2063": "ne",
    "2064": "nf",
    "2065": "ng",
    "2066": "nh",
    "2067": "ni",
    "2068": "nj",
    "2069": "nk",
    "2070": "nl",
    "2071": "nm",
    "2072": "nn",
    "2073": "no",
    "2074": "np",
    "2075": "nr",
    "2076": "ns",
    "2077": "nt",
    "2078": "nu",
    "2079": "nv",
    "2080": "nw",
    "2081": "nx",
    "2082": "ny",
    "2083": "nz",
    "2084": "oS",
    "2085": "oa",
    "2086": "ob",
    "2087": "oc",
    "2088": "od",
    "2089": "oe",
    "2090": "of",
    "2091": "og",
    "2092": "oh",
    "2093": "oi",
    "2094": "oj",
    "2095": "ok",
    "2096": "ol",
    "2097": "om",
    "2098": "on",
    "2099": "oo",
    "2100": "op",
    "2101": "or",
    "2102": "os",
    "2103": "ot",
    "2104": "ou",
    "2105": "ov",
    "2106": "ow",
    "2107": "ox",
    "2108": "oy",
    "2109": "oz",
    "2110": "pH",
    "2111": "pa",
    "2112": "pb",
    "2113": "pc",
    "2114": "pd",
    "2115": "pe",
    "2116": "pf",
    "2117": "pg",
    "2118": "ph",
    "2119": "pi",
    "2120": "pk",
    "2121": "pl",
    "2122": "pm",
    "2123": "pn",
    "2124": "po",
    "2125": "pp",
    "2126": "pq",
    "2127": "pr",
    "2128": "ps",
    "2129": "pt",
    "2130": "pu",
    "2131": "pv",
    "2132": "pw",
    "2133": "px",
    "2134": "py",
    "2135": "qa",
    "2136": "qb",
    "2137": "qc",
    "2138": "qd",
    "2139": "qh",
    "2140": "qi",
    "2141": "ql",
    "2142": "qn",
    "2143": "qp",
    "2144": "qq",
    "2145": "qr",
    "2146": "qs",
    "2147": "qt",
    "2148": "qu",
    "2149": "qv",
    "2150": "qw",
    "2151": "ra",
    "2152": "rb",
    "2153": "rc",
    "2154": "rd",
    "2155": "re",
    "2156": "rf",
    "2157": "rg",
    "2158": "rh",
    "2159": "ri",
    "2160": "rk",
    "2161": "rl",
    "2162": "rm",
    "2163": "rn",
    "2164": "ro",
    "2165": "rp",
    "2166": "rq",
    "2167": "rr",
    "2168": "rs",
    "2169": "rt",
    "2170": "ru",
    "2171": "rv",
    "2172": "rw",
    "2173": "rx",
    "2174": "ry",
    "2175": "rz",
    "2176": "sa",
    "2177": "sb",
    "2178": "sc",
    "2179": "sd",
    "2180": "se",
    "2181": "sf",
    "2182": "sg",
    "2183": "sh",
    "2184": "si",
    "2185": "sj",
    "2186": "sk",
    "2187": "sl",
    "2188": "sm",
    "2189": "sn",
    "2190": "so",
    "2191": "sp",
    "2192": "sq",
    "2193": "sr",
    "2194": "ss",
    "2195": "st",
    "2196": "su",
    "2197": "sv",
    "2198": "sw",
    "2199": "sx",
    "2200": "sy",
    "2201": "sz",
    "2202": "ta",
    "2203": "tb",
    "2204": "tc",
    "2205": "td",
    "2206": "te",
    "2207": "tf",
    "2208": "tg",
    "2209": "th",
    "2210": "ti",
    "2211": "tk",
    "2212": "tl",
    "2213": "tm",
    "2214": "tn",
    "2215": "to",
    "2216": "tp",
    "2217": "tr",
    "2218": "ts",
    "2219": "tt",
    "2220": "tu",
    "2221": "tv",
    "2222": "tw",
    "2223": "tx",
    "2224": "ty",
    "2225": "tz",
    "2226": "ua",
    "2227": "ub",
    "2228": "uc",
    "2229": "ud",
    "2230": "ue",
    "2231": "uf",
    "2232": "ug",
    "2233": "uh",
    "2234": "ui",
    "2235": "uj",
    "2236": "uk",
    "2237": "ul",
    "2238": "um",
    "2239": "un",
    "2240": "uo",
    "2241": "up",
    "2242": "ur",
    "2243": "us",
    "2244": "ut",
    "2245": "uu",
    "2246": "uv",
    "2247": "uw",
    "2248": "ux",
    "2249": "uy",
    "2250": "uz",
    "2251": "va",
    "2252": "vb",
    "2253": "vc",
    "2254": "vd",
    "2255": "ve",
    "2256": "vf",
    "2257": "vg",
    "2258": "vh",
    "2259": "vi",
    "2260": "vk",
    "2261": "vl",
    "2262": "vm",
    "2263": "vn",
    "2264": "vo",
    "2265": "vp",
    "2266": "vr",
    "2267": "vs",
    "2268": "vt",
    "2269": "vu",
    "2270": "vv",
    "2271": "vw",
    "2272": "vx",
    "2273": "vy",
    "2274": "wa",
    "2275": "wb",
    "2276": "wc",
    "2277": "wd",
    "2278": "we",
    "2279": "wf",
    "2280": "wg",
    "2281": "wh",
    "2282": "wi",
    "2283": "wk",
    "2284": "wl",
    "2285": "wm",
    "2286": "wn",
    "2287": "wo",
    "2288": "wp",
    "2289": "wr",
    "2290": "ws",
    "2291": "wt",
    "2292": "wu",
    "2293": "ww",
    "2294": "wx",
    "2295": "wy",
    "2296": "xA",
    "2297": "xB",
    "2298": "xC",
    "2299": "xD",
    "2300": "xE",
    "2301": "xF",
    "2302": "xa",
    "2303": "xb",
    "2304": "xc",
    "2305": "xd",
    "2306": "xe",
    "2307": "xf",
    "2308": "xg",
    "2309": "xh",
    "2310": "xi",
    "2311": "xl",
    "2312": "xm",
    "2313": "xn",
    "2314": "xo",
    "2315": "xp",
    "2316": "xr",
    "2317": "xs",
    "2318": "xt",
    "2319": "xu",
    "2320": "xx",
    "2321": "xy",
    "2322": "xz",
    "2323": "ya",
    "2324": "yb",
    "2325": "yc",
    "2326": "yd",
    "2327": "ye",
    "2328": "yg",
    "2329": "yi",
    "2330": "yk",
    "2331": "yl",
    "2332": "ym",
    "2333": "yn",
    "2334": "yo",
    "2335": "yp",
    "2336": "yr",
    "2337": "ys",
    "2338": "yt",
    "2339": "yu",
    "2340": "yw",
    "2341": "yx",
    "2342": "yy",
    "2343": "yz",
    "2344": "zA",
    "2345": "za",
    "2346": "zb",
    "2347": "zc",
    "2348": "zd",
    "2349": "ze",
    "2350": "zh",
    "2351": "zi",
    "2352": "zk",
    "2353": "zl",
    "2354": "zm",
    "2355": "zn",
    "2356": "zo",
    "2357": "zr",
    "2358": "zs",
    "2359": "zt",
    "2360": "zu",
    "2361": "zw",
    "2362": "zy",
    "2363": "zz",
    "2364": "{\"",
    "2365": "{$",
    "2366": "{%",
    "2367": "{'",
    "2368": "{(",
    "2369": "{-",
    "2370": "{:",
    "2371": "{@",
    "2372": "{\\",
    "2373": "{{",
    "2374": "{|",
    "2375": "{}",
    "2376": "|$",
    "2377": "|(",
    "2378": "|-",
    "2379": "|.",
    "2380": "|\\",
    "2381": "|^",
    "2382": "||",
    "2383": "}\"",
    "2384": "}$",
    "2385": "}%",
    "2386": "}&",
    "2387": "}'",
    "2388": "}(",
    "2389": "})",
    "2390": "}+",
    "2391": "},",
    "2392": "}-",
    "2393": "}.",
    "2394": "}/",
    "2395": "}:",
    "2396": "};",
    "2397": "}<",
    "2398": "}=",
    "2399": "}>",
    "2400": "}?",
    "2401": "}[",
    "2402": "}\\",
    "2403": "}]",
    "2404": "}_",
    "2405": "}`",
    "2406": "}{",
    "2407": "}|",
    "2408": "}}",
    "2409": "~/",
    "2410": "~\\",
    "2411": "~~",
    "2412": [
        130,
        172
    ],
    "2413": [
        131,
        189
    ],
    "2414": [
        134,
        146
    ],
    "2415": [
        136,
        152
    ],
    "2416": [
        140,
        128
    ],
    "2417": [
        153,
        130
    ],
    "2418": [
        157,
        188
    ],
    "2419": [
        163,
        188
    ],
    "2420": [
        166,
        130
    ],
    "2421": [
        183,
        184
    ],
    "2422": [
        191,
        189
    ],
    "2423": "\u0080",
    "2424": "\u0081",
    "2425": "\u0091",
    "2426": "\u0092",
    "2427": "\u0093",
    "2428": "\u0094",
    "2429": "\u0097",
    "2430": "\u00a0",
    "2431": "\u00a1",
    "2432": "\u00a2",
    "2433": "\u00a3",
    "2434": "\u00a4",
    "2435": "\u00a5",
    "2436": "\u00a6",
    "2437": "\u00a7",
    "2438": "\u00a8",
    "2439": "\u00a9",
    "2440": "\u00aa",
    "2441": "\u00ab",
    "2442": "\u00ac",
    "2443": "\u00ad",
    "2444": "\u00ae",
    "2445": "\u00af",
    "2446": "\u00b0",
    "2447": "\u00b1",
    "2448": "\u00b2",
    "2449": "\u00b3",
    "2450": "\u00b4",
    "2451": "\u00b5",
    "2452": "\u00b6",
    "2453": "\u00b7",
    "2454": "\u00b8",
    "2455": "\u00b9",
    "2456": "\u00ba",
    "2457": "\u00bb",
    "2458": "\u00bc",
    "2459": "\u00bd",
    "2460": "\u00be",
    "2461": "\u00bf",
    "2462": "\u00c0",
    "2463": "\u00c1",
    "2464": "\u00c2",
    "2465": "\u00c3",
    "2466": "\u00c4",
    "2467": "\u00c5",
    "2468": "\u00c6",
    "2469": "\u00c7",
    "2470": "\u00c8",
    "2471": "\u00c9",
    "2472": "\u00ca",
    "2473": "\u00cb",
    "2474": "\u00cc",
    "2475": "\u00cd",
    "2476": "\u00ce",
    "2477": "\u00cf",
    "2478": "\u00d0",
    "2479": "\u00d1",
    "2480": "\u00d2",
    "2481": "\u00d3",
    "2482": "\u00d4",
    "2483": "\u00d5",
    "2484": "\u00d6",
    "2485": "\u00d7",
    "2486": "\u00d8",
    "2487": "\u00d9",
    "2488": "\u00da",
    "2489": "\u00db",
    "2490": "\u00dc",
    "2491": "\u00dd",
    "2492": "\u00de",
    "2493": "\u00df",
    "2494": "\u00e0",
    "2495": "\u00e1",
    "2496": "\u00e2",
    "2497": "\u00e3",
    "2498": "\u00e4",
    "2499": "\u00e5",
    "2500": "\u00e6",
    "2501": "\u00e7",
    "2502": "\u00e8",
    "2503": "\u00e9",
    "2504": "\u00ea",
    "2505": "\u00eb",
    "2506": "\u00ec",
    "2507": "\u00ed",
    "2508": "\u00ee",
    "2509": "\u00ef",
    "2510": "\u00f0",
    "2511": "\u00f1",
    "2512": "\u00f2",
    "2513": "\u00f3",
    "2514": "\u00f4",
    "2515": "\u00f5",
    "2516": "\u00f6",
    "2517": "\u00f7",
    "2518": "\u00f8",
    "2519": "\u00f9",
    "2520": "\u00fa",
    "2521": "\u00fb",
    "2522": "\u00fc",
    "2523": "\u00fd",
    "2524": "\u00fe",
    "2525": "\u00ff",
    "2526": "\u0100",
    "2527": "\u0101",
    "2528": "\u0102",
    "2529": "\u0103",
    "2530": "\u0105",
    "2531": "\u0106",
    "2532": "\u0107",
    "2533": "\u0109",
    "2534": "\u010b",
    "2535": "\u010c",
    "2536": "\u010d",
    "2537": "\u010e",
    "2538": "\u010f",
    "2539": "\u0110",
    "2540": "\u0111",
    "2541": "\u0112",
    "2542": "\u0113",
    "2543": "\u0115",
    "2544": "\u0116",
    "2545": "\u0117",
    "2546": "\u0119",
    "2547": "\u011a",
    "2548": "\u011b",
    "2549": "\u011d",
    "2550": "\u011f",
    "2551": "\u0120",
    "2552": "\u0121",
    "2553": "\u0126",
    "2554": "\u0127",
    "2555": "\u0129",
    "2556": "\u012a",
    "2557": "\u012b",
    "2558": "\u012d",
    "2559": "\u012f",
    "2560": "\u0130",
    "2561": "\u0131",
    "2562": "\u0137",
    "2563": "\u013c",
    "2564": "\u013d",
    "2565": "\u013e",
    "2566": "\u0141",
    "2567": "\u0142",
    "2568": "\u0144",
    "2569": "\u0146",
    "2570": "\u0148",
    "2571": "\u014b",
    "2572": "\u014c",
    "2573": "\u014d",
    "2574": "\u014f",
    "2575": "\u0150",
    "2576": "\u0151",
    "2577": "\u0152",
    "2578": "\u0153",
    "2579": "\u0158",
    "2580": "\u0159",
    "2581": "\u015a",
    "2582": "\u015b",
    "2583": "\u015d",
    "2584": "\u015e",
    "2585": "\u015f",
    "2586": "\u0160",
    "2587": "\u0161",
    "2588": "\u0162",
    "2589": "\u0163",
    "2590": "\u0164",
    "2591": "\u0165",
    "2592": "\u0169",
    "2593": "\u016b",
    "2594": "\u016d",
    "2595": "\u016f",
    "2596": "\u0170",
    "2597": "\u0171",
    "2598": "\u0173",
    "2599": "\u0178",
    "2600": "\u0179",
    "2601": "\u017a",
    "2602": "\u017b",
    "2603": "\u017c",
    "2604": "\u017d",
    "2605": "\u017e",
    "2606": "\u017f",
    "2607": "\u018f",
    "2608": "\u0192",
    "2609": "\u01a1",
    "2610": "\u01b0",
    "2611": "\u01ce",
    "2612": "\u01d0",
    "2613": "\u01d2",
    "2614": "\u01d4",
    "2615": "\u01da",
    "2616": "\u01e7",
    "2617": "\u01eb",
    "2618": "\u0218",
    "2619": "\u0219",
    "2620": "\u021a",
    "2621": "\u021b",
    "2622": "\u0250",
    "2623": "\u0251",
    "2624": "\u0252",
    "2625": "\u0254",
    "2626": "\u0255",
    "2627": "\u0259",
    "2628": "\u025b",
    "2629": "\u0261",
    "2630": "\u0263",
    "2631": "\u0268",
    "2632": "\u026a",
    "2633": "\u026b",
    "2634": "\u026f",
    "2635": "\u0272",
    "2636": "\u0275",
    "2637": "\u0279",
    "2638": "\u027e",
    "2639": "\u0280",
    "2640": "\u0281",
    "2641": "\u0282",
    "2642": "\u0283",
    "2643": "\u028a",
    "2644": "\u028b",
    "2645": "\u028c",
    "2646": "\u028e",
    "2647": "\u0290",
    "2648": "\u0291",
    "2649": "\u0292",
    "2650": "\u0294",
    "2651": "\u02b0",
    "2652": "\u02b2",
    "2653": "\u02b7",
    "2654": "\u02b9",
    "2655": "\u02bb",
    "2656": "\u02bc",
    "2657": "\u02be",
    "2658": "\u02bf",
    "2659": "\u02c6",
    "2660": "\u02c7",
    "2661": "\u02c8",
    "2662": "\u02c9",
    "2663": "\u02ca",
    "2664": "\u02cb",
    "2665": "\u02cc",
    "2666": "\u02d0",
    "2667": "\u02d9",
    "2668": "\u02da",
    "2669": "\u02dc",
    "2670": "\u02e0",
    "2671": "\u0300",
    "2672": "\u0301",
    "2673": "\u0302",
    "2674": "\u0303",
    "2675": "\u0304",
    "2676": "\u0308",
    "2677": "\u030c",
    "2678": "\u030d",
    "2679": "\u0323",
    "2680": "\u0325",
    "2681": "\u0329",
    "2682": "\u032a",
    "2683": "\u032f",
    "2684": "\u0331",
    "2685": "\u0332",
    "2686": "\u0336",
    "2687": "\u0352",
    "2688": "\u0353",
    "2689": "\u0358",
    "2690": "\u0361",
    "2691": "\u0386",
    "2692": "\u0388",
    "2693": "\u0391",
    "2694": "\u0392",
    "2695": "\u0393",
    "2696": "\u0394",
    "2697": "\u0395",
    "2698": "\u0396",
    "2699": "\u0397",
    "2700": "\u0398",
    "2701": "\u0399",
    "2702": "\u039a",
    "2703": "\u039b",
    "2704": "\u039c",
    "2705": "\u039d",
    "2706": "\u039e",
    "2707": "\u039f",
    "2708": "\u03a0",
    "2709": "\u03a1",
    "2710": "\u03a3",
    "2711": "\u03a4",
    "2712": "\u03a5",
    "2713": "\u03a6",
    "2714": "\u03a7",
    "2715": "\u03a8",
    "2716": "\u03a9",
    "2717": "\u03ac",
    "2718": "\u03ad",
    "2719": "\u03ae",
    "2720": "\u03af",
    "2721": "\u03b1",
    "2722": "\u03b2",
    "2723": "\u03b3",
    "2724": "\u03b4",
    "2725": "\u03b5",
    "2726": "\u03b6",
    "2727": "\u03b7",
    "2728": "\u03b8",
    "2729": "\u03b9",
    "2730": "\u03ba",
    "2731": "\u03bb",
    "2732": "\u03bc",
    "2733": "\u03bd",
    "2734": "\u03be",
    "2735": "\u03bf",
    "2736": "\u03c0",
    "2737": "\u03c1",
    "2738": "\u03c2",
    "2739": "\u03c3",
    "2740": "\u03c4",
    "2741": "\u03c5",
    "2742": "\u03c6",
    "2743": "\u03c7",
    "2744": "\u03c8",
    "2745": "\u03c9",
    "2746": "\u03ca",
    "2747": "\u03cc",
    "2748": "\u03cd",
    "2749": "\u03ce",
    "2750": "\u03d5",
    "2751": "\u03f5",
    "2752": "\u0401",
    "2753": "\u0402",
    "2754": "\u0404",
    "2755": "\u0406",
    "2756": "\u0407",
    "2757": "\u0408",
    "2758": "\u0409",
    "2759": "\u040a",
    "2760": "\u040b",
    "2761": "\u040f",
    "2762": "\u0410",
    "2763": "\u0411",
    "2764": "\u0412",
    "2765": "\u0413",
    "2766": "\u0414",
    "2767": "\u0415",
    "2768": "\u0416",
    "2769": "\u0417",
    "2770": "\u0418",
    "2771": "\u0419",
    "2772": "\u041a",
    "2773": "\u041b",
    "2774": "\u041c",
    "2775": "\u041d",
    "2776": "\u041e",
    "2777": "\u041f",
    "2778": "\u0420",
    "2779": "\u0421",
    "2780": "\u0422",
    "2781": "\u0423",
    "2782": "\u0424",
    "2783": "\u0425",
    "2784": "\u0426",
    "2785": "\u0427",
    "2786": "\u0428",
    "2787": "\u0429",
    "2788": "\u042a",
    "2789": "\u042b",
    "2790": "\u042c",
    "2791": "\u042d",
    "2792": "\u042e",
    "2793": "\u042f",
    "2794": "\u0430",
    "2795": "\u0431",
    "2796": "\u0432",
    "2797": "\u0433",
    "2798": "\u0434",
    "2799": "\u0435",
    "2800": "\u0436",
    "2801": "\u0437",
    "2802": "\u0438",
    "2803": "\u0439",
    "2804": "\u043a",
    "2805": "\u043b",
    "2806": "\u043c",
    "2807": "\u043d",
    "2808": "\u043e",
    "2809": "\u043f",
    "2810": "\u0440",
    "2811": "\u0441",
    "2812": "\u0442",
    "2813": "\u0443",
    "2814": "\u0444",
    "2815": "\u0445",
    "2816": "\u0446",
    "2817": "\u0447",
    "2818": "\u0448",
    "2819": "\u0449",
    "2820": "\u044a",
    "2821": "\u044b",
    "2822": "\u044c",
    "2823": "\u044d",
    "2824": "\u044e",
    "2825": "\u044f",
    "2826": "\u0450",
    "2827": "\u0451",
    "2828": "\u0452",
    "2829": "\u0454",
    "2830": "\u0456",
    "2831": "\u0457",
    "2832": "\u0458",
    "2833": "\u0459",
    "2834": "\u045a",
    "2835": "\u045b",
    "2836": "\u045d",
    "2837": "\u045e",
    "2838": "\u045f",
    "2839": "\u0463",
    "2840": "\u046b",
    "2841": "\u0490",
    "2842": "\u0491",
    "2843": "\u0493",
    "2844": "\u049a",
    "2845": "\u049b",
    "2846": "\u04a1",
    "2847": "\u04a3",
    "2848": "\u04af",
    "2849": "\u04b1",
    "2850": "\u04cf",
    "2851": "\u04d9",
    "2852": "\u04e9",
    "2853": "\u0531",
    "2854": "\u0540",
    "2855": "\u0544",
    "2856": "\u054d",
    "2857": "\u0561",
    "2858": "\u0562",
    "2859": "\u0563",
    "2860": "\u0564",
    "2861": "\u0565",
    "2862": "\u0566",
    "2863": "\u0569",
    "2864": "\u056b",
    "2865": "\u056c",
    "2866": "\u056f",
    "2867": "\u0570",
    "2868": "\u0572",
    "2869": "\u0574",
    "2870": "\u0575",
    "2871": "\u0576",
    "2872": "\u0577",
    "2873": "\u0578",
    "2874": "\u057a",
    "2875": "\u057d",
    "2876": "\u057e",
    "2877": "\u057f",
    "2878": "\u0580",
    "2879": "\u0581",
    "2880": "\u0582",
    "2881": "\u0584",
    "2882": "\u05b0",
    "2883": "\u05b4",
    "2884": "\u05b5",
    "2885": "\u05b6",
    "2886": "\u05b7",
    "2887": "\u05b8",
    "2888": "\u05b9",
    "2889": "\u05bc",
    "2890": "\u05c1",
    "2891": "\u05d0",
    "2892": "\u05d1",
    "2893": "\u05d2",
    "2894": "\u05d3",
    "2895": "\u05d4",
    "2896": "\u05d5",
    "2897": "\u05d6",
    "2898": "\u05d7",
    "2899": "\u05d8",
    "2900": "\u05d9",
    "2901": "\u05da",
    "2902": "\u05db",
    "2903": "\u05dc",
    "2904": "\u05dd",
    "2905": "\u05de",
    "2906": "\u05df",
    "2907": "\u05e0",
    "2908": "\u05e1",
    "2909": "\u05e2",
    "2910": "\u05e3",
    "2911": "\u05e4",
    "2912": "\u05e5",
    "2913": "\u05e6",
    "2914": "\u05e7",
    "2915": "\u05e8",
    "2916": "\u05e9",
    "2917": "\u05ea",
    "2918": "\u060c",
    "2919": "\u0621",
    "2920": "\u0622",
    "2921": "\u0623",
    "2922": "\u0625",
    "2923": "\u0626",
    "2924": "\u0627",
    "2925": "\u0628",
    "2926": "\u0629",
    "2927": "\u062a",
    "2928": "\u062b",
    "2929": "\u062c",
    "2930": "\u062d",
    "2931": "\u062e",
    "2932": "\u062f",
    "2933": "\u0630",
    "2934": "\u0631",
    "2935": "\u0632",
    "2936": "\u0633",
    "2937": "\u0634",
    "2938": "\u0635",
    "2939": "\u0636",
    "2940": "\u0637",
    "2941": "\u0638",
    "2942": "\u0639",
    "2943": "\u063a",
    "2944": "\u0640",
    "2945": "\u0641",
    "2946": "\u0642",
    "2947": "\u0643",
    "2948": "\u0644",
    "2949": "\u0645",
    "2950": "\u0646",
    "2951": "\u0647",
    "2952": "\u0648",
    "2953": "\u0649",
    "2954": "\u064a",
    "2955": "\u064b",
    "2956": "\u064e",
    "2957": "\u064f",
    "2958": "\u0650",
    "2959": "\u0651",
    "2960": "\u0652",
    "2961": "\u067e",
    "2962": "\u0686",
    "2963": "\u06a9",
    "2964": "\u06af",
    "2965": "\u06be",
    "2966": "\u06c1",
    "2967": "\u06cc",
    "2968": "\u06d2",
    "2969": "\u06d5",
    "2970": "\u0710",
    "2971": "\u071d",
    "2972": "\u07ec",
    "2973": [
        224,
        164
    ],
    "2974": [
        224,
        165
    ],
    "2975": [
        224,
        166
    ],
    "2976": [
        224,
        167
    ],
    "2977": [
        224,
        168
    ],
    "2978": [
        224,
        169
    ],
    "2979": [
        224,
        170
    ],
    "2980": [
        224,
        171
    ],
    "2981": [
        224,
        172
    ],
    "2982": [
        224,
        174
    ],
    "2983": [
        224,
        175
    ],
    "2984": [
        224,
        176
    ],
    "2985": [
        224,
        177
    ],
    "2986": [
        224,
        178
    ],
    "2987": [
        224,
        179
    ],
    "2988": [
        224,
        180
    ],
    "2989": [
        224,
        181
    ],
    "2990": [
        224,
        182
    ],
    "2991": [
        224,
        183
    ],
    "2992": [
        224,
        184
    ],
    "2993": [
        224,
        185
    ],
    "2994": [
        224,
        186
    ],
    "2995": [
        224,
        188
    ],
    "2996": [
        224,
        189
    ],
    "2997": [
        225,
        128
    ],
    "2998": [
        225,
        131
    ],
    "2999": [
        225,
        158
    ],
    "3000": [
        225,
        159
    ],
    "3001": [
        225,
        184
    ],
    "3002": [
        225,
        185
    ],
    "3003": [
        225,
        186
    ],
    "3004": [
        225,
        187
    ],
    "3005": [
        225,
        189
    ],
    "3006": [
        226,
        128
    ],
    "3007": [
        226,
        129
    ],
    "3008": [
        226,
        130
    ],
    "3009": [
        226,
        132
    ],
    "3010": [
        226,
        134
    ],
    "3011": [
        226,
        136
    ],
    "3012": [
        226,
        137
    ],
    "3013": [
        226,
        148
    ],
    "3014": [
        226,
        149
    ],
    "3015": [
        226,
        150
    ],
    "3016": [
        226,
        151
    ],
    "3017": [
        226,
        152
    ],
    "3018": [
        226,
        153
    ],
    "3019": [
        226,
        156
    ],
    "3020": [
        226,
        157
    ],
    "3021": [
        227,
        128
    ],
    "3022": [
        227,
        129
    ],
    "3023": [
        227,
        130
    ],
    "3024": [
        227,
        131
    ],
    "3025": [
        228,
        184
    ],
    "3026": [
        228,
        185
    ],
    "3027": [
        228,
        186
    ],
    "3028": [
        228,
        187
    ],
    "3029": [
        228,
        188
    ],
    "3030": [
        228,
        189
    ],
    "3031": [
        228,
        190
    ],
    "3032": [
        228,
        191
    ],
    "3033": [
        229,
        128
    ],
    "3034": [
        229,
        129
    ],
    "3035": [
        229,
        130
    ],
    "3036": [
        229,
        131
    ],
    "3037": [
        229,
        132
    ],
    "3038": [
        229,
        133
    ],
    "3039": [
        229,
        134
    ],
    "3040": [
        229,
        135
    ],
    "3041": [
        229,
        136
    ],
    "3042": [
        229,
        137
    ],
    "3043": [
        229,
        138
    ],
    "3044": [
        229,
        139
    ],
    "3045": [
        229,
        140
    ],
    "3046": [
        229,
        141
    ],
    "3047": [
        229,
        142
    ],
    "3048": [
        229,
        143
    ],
    "3049": [
        229,
        144
    ],
    "3050": [
        229,
        145
    ],
    "3051": [
        229,
        146
    ],
    "3052": [
        229,
        147
    ],
    "3053": [
        229,
        148
    ],
    "3054": [
        229,
        149
    ],
    "3055": [
        229,
        150
    ],
    "3056": [
        229,
        153
    ],
    "3057": [
        229,
        155
    ],
    "3058": [
        229,
        156
    ],
    "3059": [
        229,
        157
    ],
    "3060": [
        229,
        158
    ],
    "3061": [
        229,
        159
    ],
    "3062": [
        229,
        160
    ],
    "3063": [
        229,
        161
    ],
    "3064": [
        229,
        162
    ],
    "3065": [
        229,
        163
    ],
    "3066": [
        229,
        164
    ],
    "3067": [
        229,
        165
    ],
    "3068": [
        229,
        166
    ],
    "3069": [
        229,
        167
    ],
    "3070": [
        229,
        173
    ],
    "3071": [
        229,
        174
    ],
    "3072": [
        229,
        175
    ],
    "3073": [
        229,
        176
    ],
    "3074": [
        229,
        177
    ],
    "3075": [
        229,
        178
    ],
    "3076": [
        229,
        183
    ],
    "3077": [
        229,
        184
    ],
    "3078": [
        229,
        185
    ],
    "3079": [
        229,
        186
    ],
    "3080": [
        229,
        187
    ],
    "3081": [
        229,
        188
    ],
    "3082": [
        229,
        189
    ],
    "3083": [
        229,
        190
    ],
    "3084": [
        229,
        191
    ],
    "3085": [
        230,
        128
    ],
    "3086": [
        230,
        129
    ],
    "3087": [
        230,
        130
    ],
    "3088": [
        230,
        131
    ],
    "3089": [
        230,
        132
    ],
    "3090": [
        230,
        133
    ],
    "3091": [
        230,
        136
    ],
    "3092": [
        230,
        137
    ],
    "3093": [
        230,
        138
    ],
    "3094": [
        230,
        139
    ],
    "3095": [
        230,
        140
    ],
    "3096": [
        230,
        141
    ],
    "3097": [
        230,
        142
    ],
    "3098": [
        230,
        143
    ],
    "3099": [
        230,
        145
    ],
    "3100": [
        230,
        146
    ],
    "3101": [
        230,
        147
    ],
    "3102": [
        230,
        148
    ],
    "3103": [
        230,
        149
    ],
    "3104": [
        230,
        150
    ],
    "3105": [
        230,
        151
    ],
    "3106": [
        230,
        152
    ],
    "3107": [
        230,
        153
    ],
    "3108": [
        230,
        154
    ],
    "3109": [
        230,
        155
    ],
    "3110": [
        230,
        156
    ],
    "3111": [
        230,
        157
    ],
    "3112": [
        230,
        158
    ],
    "3113": [
        230,
        159
    ],
    "3114": [
        230,
        160
    ],
    "3115": [
        230,
        161
    ],
    "3116": [
        230,
        162
    ],
    "3117": [
        230,
        163
    ],
    "3118": [
        230,
        165
    ],
    "3119": [
        230,
        167
    ],
    "3120": [
        230,
        168
    ],
    "3121": [
        230,
        169
    ],
    "3122": [
        230,
        172
    ],
    "3123": [
        230,
        173
    ],
    "3124": [
        230,
        174
    ],
    "3125": [
        230,
        175
    ],
    "3126": [
        230,
        176
    ],
    "3127": [
        230,
        177
    ],
    "3128": [
        230,
        178
    ],
    "3129": [
        230,
        179
    ],
    "3130": [
        230,
        180
    ],
    "3131": [
        230,
        181
    ],
    "3132": [
        230,
        182
    ],
    "3133": [
        230,
        183
    ],
    "3134": [
        230,
        184
    ],
    "3135": [
        230,
        185
    ],
    "3136": [
        230,
        186
    ],
    "3137": [
        230,
        187
    ],
    "3138": [
        230,
        188
    ],
    "3139": [
        231,
        129
    ],
    "3140": [
        231,
        130
    ],
    "3141": [
        231,
        132
    ],
    "3142": [
        231,
        136
    ],
    "3143": [
        231,
        137
    ],
    "3144": [
        231,
        138
    ],
    "3145": [
        231,
        142
    ],
    "3146": [
        231,
        143
    ],
    "3147": [
        231,
        144
    ],
    "3148": [
        231,
        148
    ],
    "3149": [
        231,
        149
    ],
    "3150": [
        231,
        151
    ],
    "3151": [
        231,
        153
    ],
    "3152": [
        231,
        154
    ],
    "3153": [
        231,
        155
    ],
    "3154": [
        231,
        156
    ],
    "3155": [
        231,
        157
    ],
    "3156": [
        231,
        159
    ],
    "3157": [
        231,
        160
    ],
    "3158": [
        231,
        161
    ],
    "3159": [
        231,
        162
    ],
    "3160": [
        231,
        164
    ],
    "3161": [
        231,
        165
    ],
    "3162": [
        231,
        166
    ],
    "3163": [
        231,
        167
    ],
    "3164": [
        231,
        168
    ],
    "3165": [
        231,
        169
    ],
    "3166": [
        231,
        170
    ],
    "3167": [
        231,
        171
    ],
    "3168": [
        231,
        172
    ],
    "3169": [
        231,
        173
    ],
    "3170": [
        231,
        174
    ],
    "3171": [
        231,
        175
    ],
    "3172": [
        231,
        177
    ],
    "3173": [
        231,
        178
    ],
    "3174": [
        231,
        179
    ],
    "3175": [
        231,
        180
    ],
    "3176": [
        231,
        181
    ],
    "3177": [
        231,
        182
    ],
    "3178": [
        231,
        183
    ],
    "3179": [
        231,
        186
    ],
    "3180": [
        231,
        187
    ],
    "3181": [
        231,
        188
    ],
    "3182": [
        231,
        189
    ],
    "3183": [
        231,
        190
    ],
    "3184": [
        231,
        191
    ],
    "3185": [
        232,
        128
    ],
    "3186": [
        232,
        129
    ],
    "3187": [
        232,
        130
    ],
    "3188": [
        232,
        131
    ],
    "3189": [
        232,
        132
    ],
    "3190": [
        232,
        135
    ],
    "3191": [
        232,
        136
    ],
    "3192": [
        232,
        137
    ],
    "3193": [
        232,
        138
    ],
    "3194": [
        232,
        139
    ],
    "3195": [
        232,
        140
    ],
    "3196": [
        232,
        141
    ],
    "3197": [
        232,
        142
    ],
    "3198": [
        232,
        144
    ],
    "3199": [
        232,
        153
    ],
    "3200": [
        232,
        161
    ],
    "3201": [
        232,
        162
    ],
    "3202": [
        232,
        163
    ],
    "3203": [
        232,
        166
    ],
    "3204": [
        232,
        167
    ],
    "3205": [
        232,
        168
    ],
    "3206": [
        232,
        169
    ],
    "3207": [
        232,
        170
    ],
    "3208": [
        232,
        171
    ],
    "3209": [
        232,
        173
    ],
    "3210": [
        232,
        174
    ],
    "3211": [
        232,
        175
    ],
    "3212": [
        232,
        176
    ],
    "3213": [
        232,
        177
    ],
    "3214": [
        232,
        178
    ],
    "3215": [
        232,
        179
    ],
    "3216": [
        232,
        180
    ],
    "3217": [
        232,
        181
    ],
    "3218": [
        232,
        182
    ],
    "3219": [
        232,
        183
    ],
    "3220": [
        232,
        186
    ],
    "3221": [
        232,
        187
    ],
    "3222": [
        232,
        188
    ],
    "3223": [
        232,
        189
    ],
    "3224": [
        232,
        190
    ],
    "3225": [
        232,
        191
    ],
    "3226": [
        233,
        128
    ],
    "3227": [
        233,
        129
    ],
    "3228": [
        233,
        130
    ],
    "3229": [
        233,
        131
    ],
    "3230": [
        233,
        133
    ],
    "3231": [
        233,
        135
    ],
    "3232": [
        233,
        140
    ],
    "3233": [
        233,
        146
    ],
    "3234": [
        233,
        147
    ],
    "3235": [
        233,
        148
    ],
    "3236": [
        233,
        149
    ],
    "3237": [
        233,
        150
    ],
    "3238": [
        233,
        151
    ],
    "3239": [
        233,
        152
    ],
    "3240": [
        233,
        153
    ],
    "3241": [
        233,
        154
    ],
    "3242": [
        233,
        155
    ],
    "3243": [
        233,
        156
    ],
    "3244": [
        233,
        157
    ],
    "3245": [
        233,
        159
    ],
    "3246": [
        233,
        160
    ],
    "3247": [
        233,
        161
    ],
    "3248": [
        233,
        162
    ],
    "3249": [
        233,
        163
    ],
    "3250": [
        233,
        166
    ],
    "3251": [
        233,
        169
    ],
    "3252": [
        233,
        170
    ],
    "3253": [
        233,
        171
    ],
    "3254": [
        233,
        187
    ],
    "3255": [
        233,
        190
    ],
    "3256": [
        234,
        176
    ],
    "3257": [
        234,
        177
    ],
    "3258": [
        234,
        178
    ],
    "3259": [
        234,
        179
    ],
    "3260": [
        234,
        181
    ],
    "3261": [
        234,
        183
    ],
    "3262": [
        234,
        184
    ],
    "3263": [
        234,
        185
    ],
    "3264": [
        235,
        130
    ],
    "3265": [
        235,
        132
    ],
    "3266": [
        235,
        133
    ],
    "3267": [
        235,
        138
    ],
    "3268": [
        235,
        139
    ],
    "3269": [
        235,
        141
    ],
    "3270": [
        235,
        143
    ],
    "3271": [
        235,
        144
    ],
    "3272": [
        235,
        147
    ],
    "3273": [
        235,
        158
    ],
    "3274": [
        235,
        159
    ],
    "3275": [
        235,
        160
    ],
    "3276": [
        235,
        161
    ],
    "3277": [
        235,
        163
    ],
    "3278": [
        235,
        165
    ],
    "3279": [
        235,
        166
    ],
    "3280": [
        235,
        167
    ],
    "3281": [
        235,
        169
    ],
    "3282": [
        235,
        170
    ],
    "3283": [
        235,
        176
    ],
    "3284": [
        235,
        178
    ],
    "3285": [
        235,
        179
    ],
    "3286": [
        235,
        182
    ],
    "3287": [
        236,
        131
    ],
    "3288": [
        236,
        132
    ],
    "3289": [
        236,
        133
    ],
    "3290": [
        236,
        134
    ],
    "3291": [
        236,
        138
    ],
    "3292": [
        236,
        139
    ],
    "3293": [
        236,
        149
    ],
    "3294": [
        236,
        150
    ],
    "3295": [
        236,
        151
    ],
    "3296": [
        236,
        152
    ],
    "3297": [
        236,
        153
    ],
    "3298": [
        236,
        154
    ],
    "3299": [
        236,
        155
    ],
    "3300": [
        236,
        156
    ],
    "3301": [
        236,
        157
    ],
    "3302": [
        236,
        158
    ],
    "3303": [
        236,
        160
    ],
    "3304": [
        236,
        167
    ],
    "3305": [
        236,
        176
    ],
    "3306": [
        236,
        178
    ],
    "3307": [
        236,
        185
    ],
    "3308": [
        237,
        131
    ],
    "3309": [
        237,
        138
    ],
    "3310": [
        237,
        140
    ],
    "3311": [
        237,
        149
    ],
    "3312": [
        237,
        152
    ],
    "3313": [
        237,
        153
    ],
    "3314": [
        239,
        184
    ],
    "3315": [
        239,
        188
    ],
    "3316": [
        239,
        189
    ],
    "3317": [
        239,
        191
    ],
    "3318": [
        240,
        157
    ],
    "3319": [
        240,
        159
    ],
    "3320": "\t\t\t",
    "3321": "\t\t\n",
    "3322": "\t\t ",
    "3323": "\t  ",
    "3324": "\n\t\t",
    "3325": "\n\t\n",
    "3326": "\n\t ",
    "3327": "\n\n\t",
    "3328": "\n\n\n",
    "3329": "\n\n ",
    "3330": "\n \n",
    "3331": "\n  ",
    "3332": "\r\n\t",
    "3333": "\r\n ",
    "3334": " \t\t",
    "3335": " \n\t",
    "3336": " \n\n",
    "3337": " \n ",
    "3338": " \r\n",
    "3339": "  \n",
    "3340": "   ",
    "3341": " !!",
    "3342": " !(",
    "3343": " !=",
    "3344": " \"\"",
    "3345": " \"#",
    "3346": " \"$",
    "3347": " \"%",
    "3348": " \"&",
    "3349": " \"'",
    "3350": " \"(",
    "3351": " \")",
    "3352": " \"*",
    "3353": " \"+",
    "3354": " \",",
    "3355": " \"-",
    "3356": " \".",
    "3357": " \"/",
    "3358": " \":",
    "3359": " \";",
    "3360": " \"<",
    "3361": " \">",
    "3362": " \"@",
    "3363": " \"[",
    "3364": " \"\\",
    "3365": " \"]",
    "3366": " \"^",
    "3367": " \"_",
    "3368": " \"`",
    "3369": " \"{",
    "3370": " \"~",
    "3371": " #\"",
    "3372": " ##",
    "3373": " #(",
    "3374": " #:",
    "3375": " #[",
    "3376": " #{",
    "3377": " $$",
    "3378": " $(",
    "3379": " $,",
    "3380": " $.",
    "3381": " $\\",
    "3382": " $_",
    "3383": " ${",
    "3384": " %%",
    "3385": " %.",
    "3386": " %>",
    "3387": " %{",
    "3388": " %}",
    "3389": " &#",
    "3390": " &$",
    "3391": " &&",
    "3392": " &=",
    "3393": " '\"",
    "3394": " '#",
    "3395": " '$",
    "3396": " '%",
    "3397": " '&",
    "3398": " ''",
    "3399": " ')",
    "3400": " '*",
    "3401": " '+",
    "3402": " ',",
    "3403": " '-",
    "3404": " '.",
    "3405": " '/",
    "3406": " ':",
    "3407": " ';",
    "3408": " '<",
    "3409": " '@",
    "3410": " '[",
    "3411": " '\\",
    "3412": " '_",
    "3413": " '{",
    "3414": " (!",
    "3415": " (\"",
    "3416": " (#",
    "3417": " ($",
    "3418": " (%",
    "3419": " (&",
    "3420": " ('",
    "3421": " ((",
    "3422": " ()",
    "3423": " (*",
    "3424": " (+",
    "3425": " (-",
    "3426": " (.",
    "3427": " (/",
    "3428": " (:",
    "3429": " (;",
    "3430": " (<",
    "3431": " (=",
    "3432": " (>",
    "3433": " (?",
    "3434": " (@",
    "3435": " ([",
    "3436": " (\\",
    "3437": " (_",
    "3438": " (`",
    "3439": " ({",
    "3440": " ))",
    "3441": " ),",
    "3442": " ).",
    "3443": " ):",
    "3444": " );",
    "3445": " ){",
    "3446": " *(",
    "3447": " *)",
    "3448": " **",
    "3449": " *,",
    "3450": " *.",
    "3451": " */",
    "3452": " *=",
    "3453": " *[",
    "3454": " +\"",
    "3455": " ++",
    "3456": " +=",
    "3457": " +\\",
    "3458": " ,\"",
    "3459": " -(",
    "3460": " --",
    "3461": " -.",
    "3462": " -=",
    "3463": " ->",
    "3464": " .\"",
    "3465": " ..",
    "3466": " ./",
    "3467": " .=",
    "3468": " /*",
    "3469": " //",
    "3470": " /=",
    "3471": " />",
    "3472": " /\\",
    "3473": " 00",
    "3474": " 01",
    "3475": " 02",
    "3476": " 03",
    "3477": " 04",
    "3478": " 05",
    "3479": " 06",
    "3480": " 07",
    "3481": " 08",
    "3482": " 09",
    "3483": " 10",
    "3484": " 11",
    "3485": " 12",
    "3486": " 13",
    "3487": " 14",
    "3488": " 15",
    "3489": " 16",
    "3490": " 17",
    "3491": " 18",
    "3492": " 19",
    "3493": " 20",
    "3494": " 21",
    "3495": " 22",
    "3496": " 23",
    "3497": " 24",
    "3498": " 25",
    "3499": " 26",
    "3500": " 27",
    "3501": " 28",
    "3502": " 29",
    "3503": " 30",
    "3504": " 31",
    "3505": " 32",
    "3506": " 33",
    "3507": " 34",
    "3508": " 35",
    "3509": " 36",
    "3510": " 37",
    "3511": " 38",
    "3512": " 39",
    "3513": " 40",
    "3514": " 41",
    "3515": " 42",
    "3516": " 43",
    "3517": " 44",
    "3518": " 45",
    "3519": " 46",
    "3520": " 47",
    "3521": " 48",
    "3522": " 49",
    "3523": " 50",
    "3524": " 51",
    "3525": " 52",
    "3526": " 53",
    "3527": " 54",
    "3528": " 55",
    "3529": " 56",
    "3530": " 57",
    "3531": " 58",
    "3532": " 59",
    "3533": " 60",
    "3534": " 61",
    "3535": " 62",
    "3536": " 63",
    "3537": " 64",
    "3538": " 65",
    "3539": " 66",
    "3540": " 67",
    "3541": " 68",
    "3542": " 69",
    "3543": " 70",
    "3544": " 71",
    "3545": " 72",
    "3546": " 73",
    "3547": " 74",
    "3548": " 75",
    "3549": " 76",
    "3550": " 77",
    "3551": " 78",
    "3552": " 79",
    "3553": " 80",
    "3554": " 81",
    "3555": " 82",
    "3556": " 83",
    "3557": " 84",
    "3558": " 85",
    "3559": " 86",
    "3560": " 87",
    "3561": " 88",
    "3562": " 89",
    "3563": " 90",
    "3564": " 91",
    "3565": " 92",
    "3566": " 93",
    "3567": " 94",
    "3568": " 95",
    "3569": " 96",
    "3570": " 97",
    "3571": " 98",
    "3572": " 99",
    "3573": " :\"",
    "3574": " :(",
    "3575": " :)",
    "3576": " :-",
    "3577": " ::",
    "3578": " :=",
    "3579": " ;)",
    "3580": " ;;",
    "3581": " <!",
    "3582": " <%",
    "3583": " <-",
    "3584": " </",
    "3585": " <<",
    "3586": " <=",
    "3587": " <>",
    "3588": " <?",
    "3589": " =\"",
    "3590": " ==",
    "3591": " =>",
    "3592": " =\\",
    "3593": " =~",
    "3594": " >=",
    "3595": " >>",
    "3596": " ?,",
    "3597": " ?>",
    "3598": " ??",
    "3599": " @\"",
    "3600": " @@",
    "3601": " AA",
    "3602": " AB",
    "3603": " AC",
    "3604": " AD",
    "3605": " AE",
    "3606": " AF",
    "3607": " AG",
    "3608": " AH",
    "3609": " AI",
    "3610": " AJ",
    "3611": " AK",
    "3612": " AL",
    "3613": " AM",
    "3614": " AN",
    "3615": " AO",
    "3616": " AP",
    "3617": " AQ",
    "3618": " AR",
    "3619": " AS",
    "3620": " AT",
    "3621": " AU",
    "3622": " AV",
    "3623": " AW",
    "3624": " AX",
    "3625": " AZ",
    "3626": " Ab",
    "3627": " Ac",
    "3628": " Ad",
    "3629": " Af",
    "3630": " Ag",
    "3631": " Ah",
    "3632": " Ai",
    "3633": " Aj",
    "3634": " Ak",
    "3635": " Al",
    "3636": " Am",
    "3637": " An",
    "3638": " Ao",
    "3639": " Ap",
    "3640": " Ar",
    "3641": " As",
    "3642": " At",
    "3643": " Au",
    "3644": " Av",
    "3645": " Aw",
    "3646": " Ax",
    "3647": " Ay",
    "3648": " Az",
    "3649": " BA",
    "3650": " BB",
    "3651": " BC",
    "3652": " BD",
    "3653": " BE",
    "3654": " BF",
    "3655": " BG",
    "3656": " BH",
    "3657": " BI",
    "3658": " BJ",
    "3659": " BL",
    "3660": " BM",
    "3661": " BN",
    "3662": " BO",
    "3663": " BP",
    "3664": " BR",
    "3665": " BS",
    "3666": " BT",
    "3667": " BU",
    "3668": " BV",
    "3669": " BW",
    "3670": " BY",
    "3671": " Ba",
    "3672": " Bd",
    "3673": " Be",
    "3674": " Bh",
    "3675": " Bi",
    "3676": " Bj",
    "3677": " Bl",
    "3678": " Bo",
    "3679": " Br",
    "3680": " Bu",
    "3681": " By",
    "3682": " CA",
    "3683": " CB",
    "3684": " CC",
    "3685": " CD",
    "3686": " CE",
    "3687": " CF",
    "3688": " CG",
    "3689": " CH",
    "3690": " CI",
    "3691": " CJ",
    "3692": " CK",
    "3693": " CL",
    "3694": " CM",
    "3695": " CN",
    "3696": " CO",
    "3697": " CP",
    "3698": " CR",
    "3699": " CS",
    "3700": " CT",
    "3701": " CU",
    "3702": " CV",
    "3703": " CW",
    "3704": " CX",
    "3705": " CY",
    "3706": " Ca",
    "3707": " Cd",
    "3708": " Ce",
    "3709": " Cf",
    "3710": " Ch",
    "3711": " Ci",
    "3712": " Cl",
    "3713": " Co",
    "3714": " Cp",
    "3715": " Cr",
    "3716": " Cs",
    "3717": " Ct",
    "3718": " Cu",
    "3719": " Cy",
    "3720": " Cz",
    "3721": " DA",
    "3722": " DB",
    "3723": " DC",
    "3724": " DD",
    "3725": " DE",
    "3726": " DF",
    "3727": " DG",
    "3728": " DH",
    "3729": " DI",
    "3730": " DJ",
    "3731": " DK",
    "3732": " DL",
    "3733": " DM",
    "3734": " DN",
    "3735": " DO",
    "3736": " DP",
    "3737": " DR",
    "3738": " DS",
    "3739": " DT",
    "3740": " DU",
    "3741": " DV",
    "3742": " DW",
    "3743": " DX",
    "3744": " Da",
    "3745": " Db",
    "3746": " De",
    "3747": " Dh",
    "3748": " Di",
    "3749": " Dj",
    "3750": " Do",
    "3751": " Dr",
    "3752": " Du",
    "3753": " Dw",
    "3754": " Dy",
    "3755": " EA",
    "3756": " EB",
    "3757": " EC",
    "3758": " ED",
    "3759": " EE",
    "3760": " EF",
    "3761": " EG",
    "3762": " EH",
    "3763": " EL",
    "3764": " EM",
    "3765": " EN",
    "3766": " EO",
    "3767": " EP",
    "3768": " EQ",
    "3769": " ER",
    "3770": " ES",
    "3771": " ET",
    "3772": " EU",
    "3773": " EV",
    "3774": " EW",
    "3775": " EX",
    "3776": " Eb",
    "3777": " Ec",
    "3778": " Ed",
    "3779": " Eg",
    "3780": " Eh",
    "3781": " Ej",
    "3782": " Ek",
    "3783": " El",
    "3784": " Em",
    "3785": " En",
    "3786": " Ep",
    "3787": " Eq",
    "3788": " Er",
    "3789": " Es",
    "3790": " Et",
    "3791": " Eu",
    "3792": " Ev",
    "3793": " Ex",
    "3794": " Ey",
    "3795": " Ez",
    "3796": " FA",
    "3797": " FB",
    "3798": " FC",
    "3799": " FD",
    "3800": " FE",
    "3801": " FF",
    "3802": " FG",
    "3803": " FH",
    "3804": " FI",
    "3805": " FK",
    "3806": " FL",
    "3807": " FM",
    "3808": " FN",
    "3809": " FO",
    "3810": " FP",
    "3811": " FR",
    "3812": " FS",
    "3813": " FT",
    "3814": " FW",
    "3815": " FX",
    "3816": " FY",
    "3817": " Fa",
    "3818": " Fe",
    "3819": " Fi",
    "3820": " Fl",
    "3821": " Fo",
    "3822": " Fr",
    "3823": " Ft",
    "3824": " Fu",
    "3825": " GA",
    "3826": " GB",
    "3827": " GC",
    "3828": " GD",
    "3829": " GE",
    "3830": " GF",
    "3831": " GG",
    "3832": " GH",
    "3833": " GI",
    "3834": " GL",
    "3835": " GM",
    "3836": " GN",
    "3837": " GO",
    "3838": " GP",
    "3839": " GR",
    "3840": " GS",
    "3841": " GT",
    "3842": " GU",
    "3843": " GV",
    "3844": " GW",
    "3845": " Ga",
    "3846": " Ge",
    "3847": " Gh",
    "3848": " Gi",
    "3849": " Gl",
    "3850": " Gn",
    "3851": " Go",
    "3852": " Gr",
    "3853": " Gu",
    "3854": " Gy",
    "3855": " HA",
    "3856": " HB",
    "3857": " HC",
    "3858": " HD",
    "3859": " HE",
    "3860": " HF",
    "3861": " HG",
    "3862": " HH",
    "3863": " HI",
    "3864": " HK",
    "3865": " HL",
    "3866": " HM",
    "3867": " HO",
    "3868": " HP",
    "3869": " HQ",
    "3870": " HR",
    "3871": " HS",
    "3872": " HT",
    "3873": " HU",
    "3874": " HV",
    "3875": " HW",
    "3876": " HY",
    "3877": " Ha",
    "3878": " He",
    "3879": " Hg",
    "3880": " Hi",
    "3881": " Ho",
    "3882": " Hu",
    "3883": " Hy",
    "3884": " Hz",
    "3885": " IA",
    "3886": " IB",
    "3887": " IC",
    "3888": " ID",
    "3889": " IE",
    "3890": " IF",
    "3891": " IG",
    "3892": " II",
    "3893": " IK",
    "3894": " IL",
    "3895": " IM",
    "3896": " IN",
    "3897": " IO",
    "3898": " IP",
    "3899": " IQ",
    "3900": " IR",
    "3901": " IS",
    "3902": " IT",
    "3903": " IU",
    "3904": " IV",
    "3905": " IX",
    "3906": " Ib",
    "3907": " Id",
    "3908": " If",
    "3909": " Ig",
    "3910": " Ik",
    "3911": " Il",
    "3912": " Im",
    "3913": " In",
    "3914": " Io",
    "3915": " Ip",
    "3916": " Ir",
    "3917": " Is",
    "3918": " It",
    "3919": " Iv",
    "3920": " Iz",
    "3921": " JA",
    "3922": " JC",
    "3923": " JD",
    "3924": " JE",
    "3925": " JJ",
    "3926": " JM",
    "3927": " JO",
    "3928": " JP",
    "3929": " JR",
    "3930": " JS",
    "3931": " JU",
    "3932": " Ja",
    "3933": " Je",
    "3934": " Ji",
    "3935": " Jo",
    "3936": " Jr",
    "3937": " Ju",
    "3938": " KA",
    "3939": " KB",
    "3940": " KC",
    "3941": " KD",
    "3942": " KE",
    "3943": " KG",
    "3944": " KH",
    "3945": " KK",
    "3946": " KL",
    "3947": " KM",
    "3948": " KN",
    "3949": " KO",
    "3950": " KP",
    "3951": " KR",
    "3952": " KS",
    "3953": " KT",
    "3954": " KY",
    "3955": " Ka",
    "3956": " Ke",
    "3957": " Kh",
    "3958": " Ki",
    "3959": " Kl",
    "3960": " Kn",
    "3961": " Ko",
    "3962": " Kr",
    "3963": " Ku",
    "3964": " Kw",
    "3965": " Ky",
    "3966": " LA",
    "3967": " LB",
    "3968": " LC",
    "3969": " LD",
    "3970": " LE",
    "3971": " LF",
    "3972": " LG",
    "3973": " LH",
    "3974": " LI",
    "3975": " LL",
    "3976": " LM",
    "3977": " LN",
    "3978": " LO",
    "3979": " LP",
    "3980": " LR",
    "3981": " LS",
    "3982": " LT",
    "3983": " LU",
    "3984": " LV",
    "3985": " LW",
    "3986": " LX",
    "3987": " La",
    "3988": " Le",
    "3989": " Li",
    "3990": " Ll",
    "3991": " Lo",
    "3992": " Lt",
    "3993": " Lu",
    "3994": " Lv",
    "3995": " Ly",
    "3996": " MA",
    "3997": " MB",
    "3998": " MC",
    "3999": " MD",
    "4000": " ME",
    "4001": " MF",
    "4002": " MG",
    "4003": " MH",
    "4004": " MI",
    "4005": " MJ",
    "4006": " MK",
    "4007": " ML",
    "4008": " MM",
    "4009": " MN",
    "4010": " MO",
    "4011": " MP",
    "4012": " MQ",
    "4013": " MR",
    "4014": " MS",
    "4015": " MT",
    "4016": " MU",
    "4017": " MV",
    "4018": " MW",
    "4019": " MX",
    "4020": " MY",
    "4021": " Ma",
    "4022": " Mb",
    "4023": " Mc",
    "4024": " Md",
    "4025": " Me",
    "4026": " Mg",
    "4027": " Mi",
    "4028": " Mk",
    "4029": " Mn",
    "4030": " Mo",
    "4031": " Mr",
    "4032": " Ms",
    "4033": " Mt",
    "4034": " Mu",
    "4035": " My",
    "4036": " NA",
    "4037": " NB",
    "4038": " NC",
    "4039": " ND",
    "4040": " NE",
    "4041": " NF",
    "4042": " NG",
    "4043": " NH",
    "4044": " NI",
    "4045": " NJ",
    "4046": " NK",
    "4047": " NL",
    "4048": " NM",
    "4049": " NN",
    "4050": " NO",
    "4051": " NP",
    "4052": " NR",
    "4053": " NS",
    "4054": " NT",
    "4055": " NU",
    "4056": " NV",
    "4057": " NW",
    "4058": " NY",
    "4059": " NZ",
    "4060": " Na",
    "4061": " Nb",
    "4062": " Nd",
    "4063": " Ne",
    "4064": " Ng",
    "4065": " Ni",
    "4066": " No",
    "4067": " Nr",
    "4068": " Nu",
    "4069": " Ny",
    "4070": " OA",
    "4071": " OB",
    "4072": " OC",
    "4073": " OD",
    "4074": " OF",
    "4075": " OH",
    "4076": " OK",
    "4077": " OL",
    "4078": " OM",
    "4079": " ON",
    "4080": " OP",
    "4081": " OR",
    "4082": " OS",
    "4083": " OT",
    "4084": " OU",
    "4085": " OV",
    "4086": " Ob",
    "4087": " Oc",
    "4088": " Od",
    "4089": " Of",
    "4090": " Og",
    "4091": " Oh",
    "4092": " Ok",
    "4093": " Ol",
    "4094": " Om",
    "4095": " On",
    "4096": " Op",
    "4097": " Or",
    "4098": " Os",
    "4099": " Ot",
    "4100": " Ou",
    "4101": " Ow",
    "4102": " Ox",
    "4103": " Oz",
    "4104": " PA",
    "4105": " PB",
    "4106": " PC",
    "4107": " PD",
    "4108": " PE",
    "4109": " PF",
    "4110": " PG",
    "4111": " PH",
    "4112": " PI",
    "4113": " PJ",
    "4114": " PK",
    "4115": " PL",
    "4116": " PM",
    "4117": " PN",
    "4118": " PO",
    "4119": " PP",
    "4120": " PR",
    "4121": " PS",
    "4122": " PT",
    "4123": " PU",
    "4124": " PV",
    "4125": " PW",
    "4126": " PY",
    "4127": " Pa",
    "4128": " Pb",
    "4129": " Pe",
    "4130": " Pf",
    "4131": " Ph",
    "4132": " Pi",
    "4133": " Pl",
    "4134": " Po",
    "4135": " Pr",
    "4136": " Ps",
    "4137": " Pt",
    "4138": " Pu",
    "4139": " Py",
    "4140": " QA",
    "4141": " QB",
    "4142": " QC",
    "4143": " QQ",
    "4144": " QR",
    "4145": " QS",
    "4146": " QT",
    "4147": " QU",
    "4148": " Qi",
    "4149": " Qt",
    "4150": " Qu",
    "4151": " RA",
    "4152": " RB",
    "4153": " RC",
    "4154": " RD",
    "4155": " RE",
    "4156": " RF",
    "4157": " RG",
    "4158": " RH",
    "4159": " RI",
    "4160": " RJ",
    "4161": " RL",
    "4162": " RM",
    "4163": " RN",
    "4164": " RO",
    "4165": " RP",
    "4166": " RR",
    "4167": " RS",
    "4168": " RT",
    "4169": " RU",
    "4170": " RV",
    "4171": " RW",
    "4172": " RX",
    "4173": " Ra",
    "4174": " Rd",
    "4175": " Re",
    "4176": " Rh",
    "4177": " Ri",
    "4178": " Ro",
    "4179": " Rs",
    "4180": " Ru",
    "4181": " Rx",
    "4182": " Ry",
    "4183": " SA",
    "4184": " SB",
    "4185": " SC",
    "4186": " SD",
    "4187": " SE",
    "4188": " SF",
    "4189": " SG",
    "4190": " SH",
    "4191": " SI",
    "4192": " SJ",
    "4193": " SK",
    "4194": " SL",
    "4195": " SM",
    "4196": " SN",
    "4197": " SO",
    "4198": " SP",
    "4199": " SQ",
    "4200": " SR",
    "4201": " SS",
    "4202": " ST",
    "4203": " SU",
    "4204": " SV",
    "4205": " SW",
    "4206": " SY",
    "4207": " SZ",
    "4208": " Sa",
    "4209": " Sc",
    "4210": " Se",
    "4211": " Sh",
    "4212": " Si",
    "4213": " Sk",
    "4214": " Sl",
    "4215": " Sm",
    "4216": " Sn",
    "4217": " So",
    "4218": " Sp",
    "4219": " Sr",
    "4220": " St",
    "4221": " Su",
    "4222": " Sv",
    "4223": " Sw",
    "4224": " Sy",
    "4225": " Sz",
    "4226": " TA",
    "4227": " TB",
    "4228": " TC",
    "4229": " TD",
    "4230": " TE",
    "4231": " TF",
    "4232": " TG",
    "4233": " TH",
    "4234": " TI",
    "4235": " TK",
    "4236": " TL",
    "4237": " TM",
    "4238": " TN",
    "4239": " TO",
    "4240": " TP",
    "4241": " TR",
    "4242": " TS",
    "4243": " TT",
    "4244": " TU",
    "4245": " TV",
    "4246": " TW",
    "4247": " TX",
    "4248": " TY",
    "4249": " Ta",
    "4250": " Tb",
    "4251": " Te",
    "4252": " Th",
    "4253": " Ti",
    "4254": " Tk",
    "4255": " To",
    "4256": " Tr",
    "4257": " Ts",
    "4258": " Tu",
    "4259": " Tw",
    "4260": " Tx",
    "4261": " Ty",
    "4262": " UA",
    "4263": " UC",
    "4264": " UD",
    "4265": " UE",
    "4266": " UI",
    "4267": " UK",
    "4268": " UL",
    "4269": " UM",
    "4270": " UN",
    "4271": " UP",
    "4272": " UR",
    "4273": " US",
    "4274": " UT",
    "4275": " UV",
    "4276": " UW",
    "4277": " UX",
    "4278": " Ub",
    "4279": " Ud",
    "4280": " Ug",
    "4281": " Uh",
    "4282": " Ui",
    "4283": " Uk",
    "4284": " Ul",
    "4285": " Um",
    "4286": " Un",
    "4287": " Up",
    "4288": " Ur",
    "4289": " Us",
    "4290": " Ut",
    "4291": " VA",
    "4292": " VB",
    "4293": " VC",
    "4294": " VE",
    "4295": " VG",
    "4296": " VI",
    "4297": " VK",
    "4298": " VL",
    "4299": " VM",
    "4300": " VO",
    "4301": " VP",
    "4302": " VR",
    "4303": " VS",
    "4304": " VT",
    "4305": " VW",
    "4306": " Va",
    "4307": " Ve",
    "4308": " Vi",
    "4309": " Vo",
    "4310": " Vs",
    "4311": " Vu",
    "4312": " Vy",
    "4313": " WA",
    "4314": " WB",
    "4315": " WC",
    "4316": " WD",
    "4317": " WE",
    "4318": " WF",
    "4319": " WG",
    "4320": " WH",
    "4321": " WI",
    "4322": " WL",
    "4323": " WM",
    "4324": " WO",
    "4325": " WP",
    "4326": " WR",
    "4327": " WS",
    "4328": " WT",
    "4329": " WW",
    "4330": " Wa",
    "4331": " We",
    "4332": " Wh",
    "4333": " Wi",
    "4334": " Wo",
    "4335": " Wr",
    "4336": " Wu",
    "4337": " Wy",
    "4338": " XI",
    "4339": " XL",
    "4340": " XP",
    "4341": " XS",
    "4342": " XV",
    "4343": " XX",
    "4344": " XY",
    "4345": " Xi",
    "4346": " Xu",
    "4347": " YA",
    "4348": " YE",
    "4349": " Ya",
    "4350": " Ye",
    "4351": " Yi",
    "4352": " Yo",
    "4353": " Yu",
    "4354": " ZZ",
    "4355": " Za",
    "4356": " Ze",
    "4357": " Zh",
    "4358": " Zi",
    "4359": " Zn",
    "4360": " Zo",
    "4361": " Zu",
    "4362": " Zw",
    "4363": " [\"",
    "4364": " [$",
    "4365": " ['",
    "4366": " [(",
    "4367": " [*",
    "4368": " [-",
    "4369": " [:",
    "4370": " [<",
    "4371": " [[",
    "4372": " [\\",
    "4373": " []",
    "4374": " [_",
    "4375": " [`",
    "4376": " [{",
    "4377": " \\\"",
    "4378": " \\$",
    "4379": " \\'",
    "4380": " \\(",
    "4381": " \\;",
    "4382": " \\<",
    "4383": " \\\\",
    "4384": " \\{",
    "4385": " \\|",
    "4386": " ],",
    "4387": " ];",
    "4388": " ]]",
    "4389": " ^{",
    "4390": " _(",
    "4391": " _)",
    "4392": " _,",
    "4393": " _.",
    "4394": " __",
    "4395": " _{",
    "4396": " `%",
    "4397": " `'",
    "4398": " `(",
    "4399": " `-",
    "4400": " `.",
    "4401": " `[",
    "4402": " `\\",
    "4403": " `_",
    "4404": " ``",
    "4405": " `{",
    "4406": " aa",
    "4407": " ab",
    "4408": " ac",
    "4409": " ad",
    "4410": " ae",
    "4411": " af",
    "4412": " ag",
    "4413": " ah",
    "4414": " ai",
    "4415": " aj",
    "4416": " ak",
    "4417": " al",
    "4418": " am",
    "4419": " an",
    "4420": " ao",
    "4421": " ap",
    "4422": " ar",
    "4423": " as",
    "4424": " at",
    "4425": " au",
    "4426": " av",
    "4427": " aw",
    "4428": " ax",
    "4429": " ay",
    "4430": " az",
    "4431": " ba",
    "4432": " bb",
    "4433": " bc",
    "4434": " bd",
    "4435": " be",
    "4436": " bf",
    "4437": " bg",
    "4438": " bh",
    "4439": " bi",
    "4440": " bl",
    "4441": " bm",
    "4442": " bn",
    "4443": " bo",
    "4444": " bp",
    "4445": " br",
    "4446": " bs",
    "4447": " bt",
    "4448": " bu",
    "4449": " bw",
    "4450": " by",
    "4451": " bz",
    "4452": " ca",
    "4453": " cb",
    "4454": " cc",
    "4455": " cd",
    "4456": " ce",
    "4457": " cf",
    "4458": " cg",
    "4459": " ch",
    "4460": " ci",
    "4461": " ck",
    "4462": " cl",
    "4463": " cm",
    "4464": " cn",
    "4465": " co",
    "4466": " cp",
    "4467": " cr",
    "4468": " cs",
    "4469": " ct",
    "4470": " cu",
    "4471": " cv",
    "4472": " cw",
    "4473": " cx",
    "4474": " cy",
    "4475": " cz",
    "4476": " dB",
    "4477": " da",
    "4478": " db",
    "4479": " dc",
    "4480": " dd",
    "4481": " de",
    "4482": " df",
    "4483": " dg",
    "4484": " dh",
    "4485": " di",
    "4486": " dj",
    "4487": " dk",
    "4488": " dl",
    "4489": " dm",
    "4490": " dn",
    "4491": " do",
    "4492": " dp",
    "4493": " dq",
    "4494": " dr",
    "4495": " ds",
    "4496": " dt",
    "4497": " du",
    "4498": " dv",
    "4499": " dw",
    "4500": " dx",
    "4501": " dy",
    "4502": " dz",
    "4503": " eV",
    "4504": " ea",
    "4505": " eb",
    "4506": " ec",
    "4507": " ed",
    "4508": " ee",
    "4509": " ef",
    "4510": " eg",
    "4511": " eh",
    "4512": " ei",
    "4513": " ej",
    "4514": " ek",
    "4515": " el",
    "4516": " em",
    "4517": " en",
    "4518": " ep",
    "4519": " eq",
    "4520": " er",
    "4521": " es",
    "4522": " et",
    "4523": " eu",
    "4524": " ev",
    "4525": " ew",
    "4526": " ex",
    "4527": " ey",
    "4528": " ez",
    "4529": " fa",
    "4530": " fb",
    "4531": " fc",
    "4532": " fd",
    "4533": " fe",
    "4534": " ff",
    "4535": " fi",
    "4536": " fj",
    "4537": " fl",
    "4538": " fm",
    "4539": " fn",
    "4540": " fo",
    "4541": " fp",
    "4542": " fr",
    "4543": " fs",
    "4544": " ft",
    "4545": " fu",
    "4546": " fx",
    "4547": " fy",
    "4548": " ga",
    "4549": " gb",
    "4550": " gc",
    "4551": " ge",
    "4552": " gg",
    "4553": " gh",
    "4554": " gi",
    "4555": " gj",
    "4556": " gl",
    "4557": " gm",
    "4558": " gn",
    "4559": " go",
    "4560": " gp",
    "4561": " gr",
    "4562": " gs",
    "4563": " gt",
    "4564": " gu",
    "4565": " gw",
    "4566": " gy",
    "4567": " ha",
    "4568": " hd",
    "4569": " he",
    "4570": " hf",
    "4571": " hi",
    "4572": " hl",
    "4573": " ho",
    "4574": " hp",
    "4575": " hr",
    "4576": " hs",
    "4577": " ht",
    "4578": " hu",
    "4579": " hv",
    "4580": " hw",
    "4581": " hy",
    "4582": " iT",
    "4583": " ia",
    "4584": " ib",
    "4585": " ic",
    "4586": " id",
    "4587": " ie",
    "4588": " if",
    "4589": " ig",
    "4590": " ih",
    "4591": " ii",
    "4592": " ij",
    "4593": " ik",
    "4594": " il",
    "4595": " im",
    "4596": " in",
    "4597": " io",
    "4598": " ip",
    "4599": " ir",
    "4600": " is",
    "4601": " it",
    "4602": " iv",
    "4603": " ix",
    "4604": " iy",
    "4605": " iz",
    "4606": " ja",
    "4607": " je",
    "4608": " ji",
    "4609": " jj",
    "4610": " jo",
    "4611": " js",
    "4612": " ju",
    "4613": " kB",
    "4614": " kW",
    "4615": " ka",
    "4616": " kb",
    "4617": " ke",
    "4618": " kg",
    "4619": " kh",
    "4620": " ki",
    "4621": " kj",
    "4622": " kk",
    "4623": " kl",
    "4624": " km",
    "4625": " kn",
    "4626": " ko",
    "4627": " kp",
    "4628": " kr",
    "4629": " ks",
    "4630": " kt",
    "4631": " ku",
    "4632": " kv",
    "4633": " kw",
    "4634": " ky",
    "4635": " la",
    "4636": " lb",
    "4637": " lc",
    "4638": " ld",
    "4639": " le",
    "4640": " lg",
    "4641": " li",
    "4642": " ll",
    "4643": " lm",
    "4644": " ln",
    "4645": " lo",
    "4646": " lp",
    "4647": " lr",
    "4648": " ls",
    "4649": " lt",
    "4650": " lu",
    "4651": " lv",
    "4652": " lw",
    "4653": " ly",
    "4654": " mL",
    "4655": " mM",
    "4656": " ma",
    "4657": " mb",
    "4658": " mc",
    "4659": " md",
    "4660": " me",
    "4661": " mf",
    "4662": " mg",
    "4663": " mi",
    "4664": " mk",
    "4665": " ml",
    "4666": " mm",
    "4667": " mn",
    "4668": " mo",
    "4669": " mp",
    "4670": " mr",
    "4671": " ms",
    "4672": " mt",
    "4673": " mu",
    "4674": " mv",
    "4675": " mw",
    "4676": " mx",
    "4677": " my",
    "4678": " na",
    "4679": " nb",
    "4680": " nc",
    "4681": " nd",
    "4682": " ne",
    "4683": " nf",
    "4684": " ng",
    "4685": " nh",
    "4686": " ni",
    "4687": " nj",
    "4688": " nk",
    "4689": " nl",
    "4690": " nm",
    "4691": " nn",
    "4692": " no",
    "4693": " np",
    "4694": " nr",
    "4695": " ns",
    "4696": " nt",
    "4697": " nu",
    "4698": " nv",
    "4699": " nw",
    "4700": " nx",
    "4701": " ny",
    "4702": " nz",
    "4703": " ob",
    "4704": " oc",
    "4705": " od",
    "4706": " of",
    "4707": " og",
    "4708": " oh",
    "4709": " ok",
    "4710": " ol",
    "4711": " om",
    "4712": " on",
    "4713": " oo",
    "4714": " op",
    "4715": " or",
    "4716": " os",
    "4717": " ot",
    "4718": " ou",
    "4719": " ov",
    "4720": " ow",
    "4721": " ox",
    "4722": " oy",
    "4723": " oz",
    "4724": " pH",
    "4725": " pa",
    "4726": " pb",
    "4727": " pc",
    "4728": " pd",
    "4729": " pe",
    "4730": " pf",
    "4731": " pg",
    "4732": " ph",
    "4733": " pi",
    "4734": " pk",
    "4735": " pl",
    "4736": " pm",
    "4737": " pn",
    "4738": " po",
    "4739": " pp",
    "4740": " pq",
    "4741": " pr",
    "4742": " ps",
    "4743": " pt",
    "4744": " pu",
    "4745": " pv",
    "4746": " pw",
    "4747": " px",
    "4748": " py",
    "4749": " qi",
    "4750": " qq",
    "4751": " qt",
    "4752": " qu",
    "4753": " ra",
    "4754": " rb",
    "4755": " rc",
    "4756": " rd",
    "4757": " re",
    "4758": " rf",
    "4759": " rg",
    "4760": " rh",
    "4761": " ri",
    "4762": " rm",
    "4763": " rn",
    "4764": " ro",
    "4765": " rp",
    "4766": " rr",
    "4767": " rs",
    "4768": " rt",
    "4769": " ru",
    "4770": " rv",
    "4771": " rw",
    "4772": " rx",
    "4773": " ry",
    "4774": " sa",
    "4775": " sb",
    "4776": " sc",
    "4777": " sd",
    "4778": " se",
    "4779": " sf",
    "4780": " sg",
    "4781": " sh",
    "4782": " si",
    "4783": " sj",
    "4784": " sk",
    "4785": " sl",
    "4786": " sm",
    "4787": " sn",
    "4788": " so",
    "4789": " sp",
    "4790": " sq",
    "4791": " sr",
    "4792": " ss",
    "4793": " st",
    "4794": " su",
    "4795": " sv",
    "4796": " sw",
    "4797": " sy",
    "4798": " sz",
    "4799": " ta",
    "4800": " tb",
    "4801": " tc",
    "4802": " td",
    "4803": " te",
    "4804": " tf",
    "4805": " th",
    "4806": " ti",
    "4807": " tk",
    "4808": " tl",
    "4809": " tm",
    "4810": " tn",
    "4811": " to",
    "4812": " tp",
    "4813": " tr",
    "4814": " ts",
    "4815": " tt",
    "4816": " tu",
    "4817": " tv",
    "4818": " tw",
    "4819": " tx",
    "4820": " ty",
    "4821": " tz",
    "4822": " ua",
    "4823": " ub",
    "4824": " uc",
    "4825": " ud",
    "4826": " ug",
    "4827": " uh",
    "4828": " ui",
    "4829": " uk",
    "4830": " ul",
    "4831": " um",
    "4832": " un",
    "4833": " up",
    "4834": " ur",
    "4835": " us",
    "4836": " ut",
    "4837": " uv",
    "4838": " uw",
    "4839": " uz",
    "4840": " va",
    "4841": " vb",
    "4842": " vc",
    "4843": " ve",
    "4844": " vi",
    "4845": " vl",
    "4846": " vm",
    "4847": " vn",
    "4848": " vo",
    "4849": " vp",
    "4850": " vr",
    "4851": " vs",
    "4852": " vt",
    "4853": " vu",
    "4854": " vy",
    "4855": " wa",
    "4856": " wb",
    "4857": " wc",
    "4858": " we",
    "4859": " wf",
    "4860": " wh",
    "4861": " wi",
    "4862": " wk",
    "4863": " wo",
    "4864": " wp",
    "4865": " wr",
    "4866": " ws",
    "4867": " wt",
    "4868": " ww",
    "4869": " wx",
    "4870": " wy",
    "4871": " xe",
    "4872": " xi",
    "4873": " xl",
    "4874": " xs",
    "4875": " xt",
    "4876": " xx",
    "4877": " xy",
    "4878": " ya",
    "4879": " ye",
    "4880": " yi",
    "4881": " yo",
    "4882": " yr",
    "4883": " ys",
    "4884": " yy",
    "4885": " za",
    "4886": " ze",
    "4887": " zh",
    "4888": " zi",
    "4889": " zo",
    "4890": " zu",
    "4891": " zw",
    "4892": " zz",
    "4893": " {\"",
    "4894": " {$",
    "4895": " {%",
    "4896": " {'",
    "4897": " {(",
    "4898": " {-",
    "4899": " {:",
    "4900": " {@",
    "4901": " {\\",
    "4902": " {{",
    "4903": " {}",
    "4904": " |=",
    "4905": " |\\",
    "4906": " ||",
    "4907": " })",
    "4908": " },",
    "4909": " };",
    "4910": " }\\",
    "4911": " }]",
    "4912": " }{",
    "4913": " }}",
    "4914": " ~/",
    "4915": " \u00a0",
    "4916": " \u00a1",
    "4917": " \u00a2",
    "4918": " \u00a3",
    "4919": " \u00a4",
    "4920": " \u00a5",
    "4921": " \u00a6",
    "4922": " \u00a7",
    "4923": " \u00a9",
    "4924": " \u00ab",
    "4925": " \u00ac",
    "4926": " \u00ad",
    "4927": " \u00ae",
    "4928": " \u00b0",
    "4929": " \u00b1",
    "4930": " \u00b5",
    "4931": " \u00b6",
    "4932": " \u00b7",
    "4933": " \u00bb",
    "4934": " \u00bc",
    "4935": " \u00bd",
    "4936": " \u00bf",
    "4937": " \u00c0",
    "4938": " \u00c1",
    "4939": " \u00c2",
    "4940": " \u00c3",
    "4941": " \u00c4",
    "4942": " \u00c5",
    "4943": " \u00c7",
    "4944": " \u00c8",
    "4945": " \u00c9",
    "4946": " \u00ca",
    "4947": " \u00cd",
    "4948": " \u00ce",
    "4949": " \u00d0",
    "4950": " \u00d1",
    "4951": " \u00d2",
    "4952": " \u00d3",
    "4953": " \u00d4",
    "4954": " \u00d6",
    "4955": " \u00d7",
    "4956": " \u00d8",
    "4957": " \u00da",
    "4958": " \u00dc",
    "4959": " \u00de",
    "4960": " \u00df",
    "4961": " \u00e0",
    "4962": " \u00e1",
    "4963": " \u00e2",
    "4964": " \u00e3",
    "4965": " \u00e4",
    "4966": " \u00e5",
    "4967": " \u00e6",
    "4968": " \u00e7",
    "4969": " \u00e8",
    "4970": " \u00e9",
    "4971": " \u00ea",
    "4972": " \u00eb",
    "4973": " \u00ec",
    "4974": " \u00ed",
    "4975": " \u00ee",
    "4976": " \u00f0",
    "4977": " \u00f1",
    "4978": " \u00f3",
    "4979": " \u00f4",
    "4980": " \u00f6",
    "4981": " \u00f7",
    "4982": " \u00f8",
    "4983": " \u00fa",
    "4984": " \u00fc",
    "4985": " \u00fe",
    "4986": " \u0100",
    "4987": " \u0101",
    "4988": " \u0109",
    "4989": " \u010c",
    "4990": " \u010d",
    "4991": " \u0110",
    "4992": " \u0111",
    "4993": " \u0130",
    "4994": " \u0141",
    "4995": " \u0142",
    "4996": " \u0151",
    "4997": " \u0153",
    "4998": " \u0159",
    "4999": " \u015a",
    "5000": " \u015b",
    "5001": " \u015d",
    "5002": " \u015e",
    "5003": " \u015f",
    "5004": " \u0160",
    "5005": " \u0161",
    "5006": " \u016b",
    "5007": " \u017b",
    "5008": " \u017c",
    "5009": " \u017d",
    "5010": " \u017e",
    "5011": " \u01eb",
    "5012": " \u0301",
    "5013": " \u0303",
    "5014": " \u0304",
    "5015": " \u0307",
    "5016": " \u0308",
    "5017": " \u030a",
    "5018": " \u0327",
    "5019": " \u0391",
    "5020": " \u0393",
    "5021": " \u0394",
    "5022": " \u0395",
    "5023": " \u0398",
    "5024": " \u039a",
    "5025": " \u039b",
    "5026": " \u039c",
    "5027": " \u03a0",
    "5028": " \u03a3",
    "5029": " \u03a4",
    "5030": " \u03a6",
    "5031": " \u03a8",
    "5032": " \u03a9",
    "5033": " \u03ad",
    "5034": " \u03b1",
    "5035": " \u03b2",
    "5036": " \u03b3",
    "5037": " \u03b4",
    "5038": " \u03b5",
    "5039": " \u03b6",
    "5040": " \u03b7",
    "5041": " \u03b8",
    "5042": " \u03b9",
    "5043": " \u03ba",
    "5044": " \u03bb",
    "5045": " \u03bc",
    "5046": " \u03bd",
    "5047": " \u03be",
    "5048": " \u03bf",
    "5049": " \u03c0",
    "5050": " \u03c1",
    "5051": " \u03c3",
    "5052": " \u03c4",
    "5053": " \u03c5",
    "5054": " \u03c6",
    "5055": " \u03c7",
    "5056": " \u03c8",
    "5057": " \u03c9",
    "5058": " \u03cc",
    "5059": " \u0404",
    "5060": " \u0406",
    "5061": " \u0408",
    "5062": " \u0410",
    "5063": " \u0411",
    "5064": " \u0412",
    "5065": " \u0413",
    "5066": " \u0414",
    "5067": " \u0415",
    "5068": " \u0416",
    "5069": " \u0417",
    "5070": " \u0418",
    "5071": " \u0419",
    "5072": " \u041a",
    "5073": " \u041b",
    "5074": " \u041c",
    "5075": " \u041d",
    "5076": " \u041e",
    "5077": " \u041f",
    "5078": " \u0420",
    "5079": " \u0421",
    "5080": " \u0422",
    "5081": " \u0423",
    "5082": " \u0424",
    "5083": " \u0425",
    "5084": " \u0426",
    "5085": " \u0427",
    "5086": " \u0428",
    "5087": " \u0429",
    "5088": " \u042d",
    "5089": " \u042e",
    "5090": " \u042f",
    "5091": " \u0430",
    "5092": " \u0431",
    "5093": " \u0432",
    "5094": " \u0433",
    "5095": " \u0434",
    "5096": " \u0435",
    "5097": " \u0436",
    "5098": " \u0437",
    "5099": " \u0438",
    "5100": " \u0439",
    "5101": " \u043a",
    "5102": " \u043b",
    "5103": " \u043c",
    "5104": " \u043d",
    "5105": " \u043e",
    "5106": " \u043f",
    "5107": " \u0440",
    "5108": " \u0441",
    "5109": " \u0442",
    "5110": " \u0443",
    "5111": " \u0444",
    "5112": " \u0445",
    "5113": " \u0446",
    "5114": " \u0447",
    "5115": " \u0448",
    "5116": " \u0449",
    "5117": " \u044d",
    "5118": " \u044e",
    "5119": " \u044f",
    "5120": " \u0454",
    "5121": " \u0456",
    "5122": " \u0457",
    "5123": " \u0458",
    "5124": " \u05d0",
    "5125": " \u05d1",
    "5126": " \u05d4",
    "5127": " \u05d5",
    "5128": " \u05d9",
    "5129": " \u05db",
    "5130": " \u05dc",
    "5131": " \u05de",
    "5132": " \u05e0",
    "5133": " \u05e2",
    "5134": " \u05e9",
    "5135": " \u0622",
    "5136": " \u0623",
    "5137": " \u0625",
    "5138": " \u0627",
    "5139": " \u0628",
    "5140": " \u062a",
    "5141": " \u062c",
    "5142": " \u062d",
    "5143": " \u062e",
    "5144": " \u062f",
    "5145": " \u0631",
    "5146": " \u0633",
    "5147": " \u0634",
    "5148": " \u0635",
    "5149": " \u0639",
    "5150": " \u0641",
    "5151": " \u0642",
    "5152": " \u0643",
    "5153": " \u0644",
    "5154": " \u0645",
    "5155": " \u0646",
    "5156": " \u0647",
    "5157": " \u0648",
    "5158": " \u064a",
    "5159": " \u067e",
    "5160": " \u06a9",
    "5161": " \u06af",
    "5162": " \u06cc",
    "5163": "!!!",
    "5164": "!\")",
    "5165": "!\",",
    "5166": "!',",
    "5167": "!),",
    "5168": "!).",
    "5169": "!--",
    "5170": "\"\"\"",
    "5171": "\"\",",
    "5172": "\"))",
    "5173": "\"),",
    "5174": "\").",
    "5175": "\"):",
    "5176": "\");",
    "5177": "\")]",
    "5178": "\",\"",
    "5179": "\"--",
    "5180": "\"/>",
    "5181": "\":\"",
    "5182": "\":[",
    "5183": "\":{",
    "5184": "\"</",
    "5185": "\"=>",
    "5186": "\">&",
    "5187": "\">'",
    "5188": "\"><",
    "5189": "\"?>",
    "5190": "\"])",
    "5191": "\"],",
    "5192": "\"].",
    "5193": "\"]:",
    "5194": "\"];",
    "5195": "\"][",
    "5196": "\"]]",
    "5197": "\"]}",
    "5198": "\"})",
    "5199": "\"},",
    "5200": "\"}}",
    "5201": "###",
    "5202": "%),",
    "5203": "%).",
    "5204": "'\",",
    "5205": "'''",
    "5206": "')(",
    "5207": "'))",
    "5208": "'),",
    "5209": "').",
    "5210": "'):",
    "5211": "');",
    "5212": "')[",
    "5213": "')]",
    "5214": "','",
    "5215": "':'",
    "5216": "'</",
    "5217": "'=>",
    "5218": "'><",
    "5219": "'])",
    "5220": "']*",
    "5221": "'],",
    "5222": "'].",
    "5223": "']:",
    "5224": "'];",
    "5225": "']=",
    "5226": "'][",
    "5227": "']]",
    "5228": "']}",
    "5229": "'ll",
    "5230": "'re",
    "5231": "'ve",
    "5232": "'})",
    "5233": "'},",
    "5234": "(\"\"",
    "5235": "(\"#",
    "5236": "(\"%",
    "5237": "(\"+",
    "5238": "(\",",
    "5239": "(\"-",
    "5240": "(\".",
    "5241": "(\"/",
    "5242": "(\":",
    "5243": "(\"<",
    "5244": "(\"@",
    "5245": "(\"\\",
    "5246": "($_",
    "5247": "('#",
    "5248": "('$",
    "5249": "(',",
    "5250": "('-",
    "5251": "('.",
    "5252": "('/",
    "5253": "(':",
    "5254": "('<",
    "5255": "('@",
    "5256": "('[",
    "5257": "('\\",
    "5258": "('^",
    "5259": "('_",
    "5260": "(('",
    "5261": "(((",
    "5262": "(()",
    "5263": "()\"",
    "5264": "()(",
    "5265": "())",
    "5266": "(),",
    "5267": "().",
    "5268": "():",
    "5269": "();",
    "5270": "()[",
    "5271": "()]",
    "5272": "()`",
    "5273": "(){",
    "5274": "()}",
    "5275": "(*)",
    "5276": "(**",
    "5277": "(?:",
    "5278": "(@\"",
    "5279": "([\"",
    "5280": "(['",
    "5281": "([[",
    "5282": "([\\",
    "5283": "([^",
    "5284": "(__",
    "5285": "({'",
    "5286": ")\")",
    "5287": ")\",",
    "5288": ")\".",
    "5289": ")\">",
    "5290": ")',",
    "5291": ")(?",
    "5292": ")))",
    "5293": "))*",
    "5294": ")),",
    "5295": ")).",
    "5296": "))/",
    "5297": ")):",
    "5298": "));",
    "5299": "))?",
    "5300": "))\\",
    "5301": "))]",
    "5302": ")){",
    "5303": ")*(",
    "5304": ")**",
    "5305": ")+(",
    "5306": "),(",
    "5307": "),\\",
    "5308": ")--",
    "5309": ")->",
    "5310": ").\"",
    "5311": ")..",
    "5312": ").[",
    "5313": ").\\",
    "5314": ")/(",
    "5315": ");\\",
    "5316": ")</",
    "5317": ")=(",
    "5318": ")\\\\",
    "5319": ")])",
    "5320": ")],",
    "5321": ")].",
    "5322": ")];",
    "5323": ")})",
    "5324": ")},",
    "5325": ")}\\",
    "5326": ")}}",
    "5327": "*((",
    "5328": "**(",
    "5329": "***",
    "5330": "**/",
    "5331": "**:",
    "5332": "+\")",
    "5333": "+\"/",
    "5334": "+'.",
    "5335": "+'/",
    "5336": "+'_",
    "5337": "++)",
    "5338": "++,",
    "5339": "++;",
    "5340": "++]",
    "5341": ",''",
    "5342": ",**",
    "5343": "-\",",
    "5344": "--\"",
    "5345": "--+",
    "5346": "---",
    "5347": "--;",
    "5348": "-->",
    "5349": "->_",
    "5350": ".\"\"",
    "5351": ".\")",
    "5352": ".\",",
    "5353": ".\"[",
    "5354": ".$$",
    "5355": ".'\"",
    "5356": ".''",
    "5357": ".')",
    "5358": ".',",
    "5359": ".),",
    "5360": ".).",
    "5361": ".--",
    "5362": "...",
    "5363": "../",
    "5364": ".</",
    "5365": ".__",
    "5366": ".\u00ab",
    "5367": ".\u00bb",
    "5368": "/\")",
    "5369": "/\",",
    "5370": "/\">",
    "5371": "/')",
    "5372": "/',",
    "5373": "/*!",
    "5374": "/**",
    "5375": "/*.",
    "5376": "///",
    "5377": "/>.",
    "5378": "/__",
    "5379": ":\")",
    "5380": ":\",",
    "5381": ":')",
    "5382": ":',",
    "5383": ":**",
    "5384": ":--",
    "5385": "://",
    "5386": ":</",
    "5387": ":@\"",
    "5388": ":\\\\",
    "5389": ":])",
    "5390": ":],",
    "5391": ":].",
    "5392": ";\">",
    "5393": ";</",
    "5394": "=\"\"",
    "5395": "=\"#",
    "5396": "=\"$",
    "5397": "=\"'",
    "5398": "=\"+",
    "5399": "=\",",
    "5400": "=\"-",
    "5401": "=\".",
    "5402": "=\"/",
    "5403": "=\"<",
    "5404": "=\"@",
    "5405": "=\"\\",
    "5406": "=\"_",
    "5407": "=\"{",
    "5408": "=$(",
    "5409": "=${",
    "5410": "='\"",
    "5411": "='#",
    "5412": "=''",
    "5413": "='+",
    "5414": "=',",
    "5415": "='/",
    "5416": "==\"",
    "5417": "=='",
    "5418": "===",
    "5419": "=[\"",
    "5420": "=['",
    "5421": "=[[",
    "5422": "=[]",
    "5423": "=\\\"",
    "5424": "=\\{",
    "5425": "={\"",
    "5426": "={'",
    "5427": "={\\",
    "5428": "={{",
    "5429": "={}",
    "5430": ">\")",
    "5431": ">\",",
    "5432": ">\";",
    "5433": ">')",
    "5434": ">',",
    "5435": ">';",
    "5436": ">()",
    "5437": ">).",
    "5438": ">::",
    "5439": "></",
    "5440": ">>>",
    "5441": ">{{",
    "5442": "?\",",
    "5443": "?',",
    "5444": "?),",
    "5445": "?).",
    "5446": "???",
    "5447": "AAA",
    "5448": "ABA",
    "5449": "ABC",
    "5450": "ABI",
    "5451": "ABS",
    "5452": "ACA",
    "5453": "ACC",
    "5454": "ACE",
    "5455": "ACH",
    "5456": "ACK",
    "5457": "ACP",
    "5458": "ACS",
    "5459": "ACT",
    "5460": "ADA",
    "5461": "ADC",
    "5462": "ADD",
    "5463": "ADE",
    "5464": "ADO",
    "5465": "ADS",
    "5466": "AES",
    "5467": "AFF",
    "5468": "AFP",
    "5469": "AGE",
    "5470": "AGG",
    "5471": "AIL",
    "5472": "AIN",
    "5473": "AIR",
    "5474": "ALA",
    "5475": "ALE",
    "5476": "ALK",
    "5477": "ALL",
    "5478": "ALS",
    "5479": "ALT",
    "5480": "AMA",
    "5481": "AMB",
    "5482": "AMD",
    "5483": "AME",
    "5484": "AMI",
    "5485": "AML",
    "5486": "AMP",
    "5487": "AMS",
    "5488": "ANA",
    "5489": "ANC",
    "5490": "AND",
    "5491": "ANE",
    "5492": "ANG",
    "5493": "ANI",
    "5494": "ANK",
    "5495": "ANN",
    "5496": "ANO",
    "5497": "ANS",
    "5498": "ANT",
    "5499": "ANY",
    "5500": "APE",
    "5501": "APH",
    "5502": "API",
    "5503": "APP",
    "5504": "APS",
    "5505": "ARA",
    "5506": "ARB",
    "5507": "ARC",
    "5508": "ARD",
    "5509": "ARE",
    "5510": "ARG",
    "5511": "ARI",
    "5512": "ARK",
    "5513": "ARM",
    "5514": "ARN",
    "5515": "ARP",
    "5516": "ARR",
    "5517": "ARS",
    "5518": "ART",
    "5519": "ARY",
    "5520": "ASA",
    "5521": "ASC",
    "5522": "ASE",
    "5523": "ASH",
    "5524": "ASK",
    "5525": "ASM",
    "5526": "ASP",
    "5527": "ASS",
    "5528": "AST",
    "5529": "ASY",
    "5530": "ATA",
    "5531": "ATE",
    "5532": "ATH",
    "5533": "ATI",
    "5534": "ATO",
    "5535": "ATS",
    "5536": "ATT",
    "5537": "AUD",
    "5538": "AUT",
    "5539": "AVA",
    "5540": "AVE",
    "5541": "AWS",
    "5542": "Abs",
    "5543": "Acc",
    "5544": "Ack",
    "5545": "Act",
    "5546": "Ada",
    "5547": "Add",
    "5548": "Adj",
    "5549": "Adv",
    "5550": "Aff",
    "5551": "Age",
    "5552": "Agg",
    "5553": "Air",
    "5554": "Akt",
    "5555": "Ald",
    "5556": "Ale",
    "5557": "Alg",
    "5558": "Ali",
    "5559": "All",
    "5560": "Alt",
    "5561": "Amb",
    "5562": "Amy",
    "5563": "And",
    "5564": "Ang",
    "5565": "Ann",
    "5566": "Ans",
    "5567": "Ant",
    "5568": "Any",
    "5569": "Api",
    "5570": "App",
    "5571": "Apr",
    "5572": "Aqu",
    "5573": "Arc",
    "5574": "Are",
    "5575": "Arg",
    "5576": "Ari",
    "5577": "Arm",
    "5578": "Arn",
    "5579": "Arr",
    "5580": "Art",
    "5581": "Asc",
    "5582": "Ash",
    "5583": "Ask",
    "5584": "Asp",
    "5585": "Ass",
    "5586": "Ast",
    "5587": "Ath",
    "5588": "Atl",
    "5589": "Att",
    "5590": "Aud",
    "5591": "Aug",
    "5592": "Aut",
    "5593": "Aux",
    "5594": "Avg",
    "5595": "Aws",
    "5596": "BAD",
    "5597": "BAL",
    "5598": "BAR",
    "5599": "BAS",
    "5600": "BAT",
    "5601": "BBC",
    "5602": "BER",
    "5603": "BIG",
    "5604": "BIN",
    "5605": "BIT",
    "5606": "BLE",
    "5607": "BMI",
    "5608": "BOT",
    "5609": "BOX",
    "5610": "BRE",
    "5611": "BSD",
    "5612": "BUF",
    "5613": "BUG",
    "5614": "BUR",
    "5615": "BUS",
    "5616": "Bab",
    "5617": "Bad",
    "5618": "Bag",
    "5619": "Bah",
    "5620": "Bal",
    "5621": "Ban",
    "5622": "Bar",
    "5623": "Bas",
    "5624": "Bat",
    "5625": "Bay",
    "5626": "Bbb",
    "5627": "Bed",
    "5628": "Bel",
    "5629": "Ben",
    "5630": "Ber",
    "5631": "Bes",
    "5632": "Bet",
    "5633": "Bib",
    "5634": "Bid",
    "5635": "Big",
    "5636": "Bin",
    "5637": "Bio",
    "5638": "Bir",
    "5639": "Bit",
    "5640": "Blo",
    "5641": "Bob",
    "5642": "Bol",
    "5643": "Bon",
    "5644": "Bor",
    "5645": "Bot",
    "5646": "Bow",
    "5647": "Box",
    "5648": "Boy",
    "5649": "Bra",
    "5650": "Bre",
    "5651": "Bro",
    "5652": "Btn",
    "5653": "Buf",
    "5654": "Bug",
    "5655": "Bul",
    "5656": "Bur",
    "5657": "Bus",
    "5658": "But",
    "5659": "Buy",
    "5660": "CAC",
    "5661": "CAD",
    "5662": "CAL",
    "5663": "CAM",
    "5664": "CAN",
    "5665": "CAP",
    "5666": "CAR",
    "5667": "CAS",
    "5668": "CAT",
    "5669": "CBC",
    "5670": "CBS",
    "5671": "CCA",
    "5672": "CCC",
    "5673": "CDC",
    "5674": "CDF",
    "5675": "CEL",
    "5676": "CEO",
    "5677": "CEP",
    "5678": "CER",
    "5679": "CES",
    "5680": "CFG",
    "5681": "CHA",
    "5682": "CHE",
    "5683": "CHO",
    "5684": "CHR",
    "5685": "CID",
    "5686": "CLA",
    "5687": "CLC",
    "5688": "CLE",
    "5689": "CLI",
    "5690": "CLK",
    "5691": "CLS",
    "5692": "CLU",
    "5693": "CMD",
    "5694": "CMS",
    "5695": "CNN",
    "5696": "CNT",
    "5697": "COD",
    "5698": "COL",
    "5699": "COM",
    "5700": "CON",
    "5701": "COR",
    "5702": "COS",
    "5703": "CPP",
    "5704": "CPU",
    "5705": "CRC",
    "5706": "CRE",
    "5707": "CSI",
    "5708": "CSS",
    "5709": "CSV",
    "5710": "CTC",
    "5711": "CTL",
    "5712": "CTT",
    "5713": "CTX",
    "5714": "CUR",
    "5715": "Cab",
    "5716": "Cad",
    "5717": "Cal",
    "5718": "Cam",
    "5719": "Can",
    "5720": "Cap",
    "5721": "Car",
    "5722": "Cas",
    "5723": "Cat",
    "5724": "Cel",
    "5725": "Cfg",
    "5726": "Cha",
    "5727": "Che",
    "5728": "Chi",
    "5729": "Cho",
    "5730": "Cir",
    "5731": "Cit",
    "5732": "Cla",
    "5733": "Cle",
    "5734": "Cli",
    "5735": "Clo",
    "5736": "Cmd",
    "5737": "Cnt",
    "5738": "CoV",
    "5739": "Cod",
    "5740": "Cog",
    "5741": "Col",
    "5742": "Com",
    "5743": "Con",
    "5744": "Cop",
    "5745": "Cor",
    "5746": "Cos",
    "5747": "Cov",
    "5748": "Cre",
    "5749": "Cro",
    "5750": "Css",
    "5751": "Csv",
    "5752": "Ctr",
    "5753": "Ctx",
    "5754": "Cur",
    "5755": "Cut",
    "5756": "DAC",
    "5757": "DAG",
    "5758": "DAO",
    "5759": "DAT",
    "5760": "DAY",
    "5761": "DBC",
    "5762": "DEC",
    "5763": "DED",
    "5764": "DEF",
    "5765": "DEL",
    "5766": "DEM",
    "5767": "DEN",
    "5768": "DEP",
    "5769": "DER",
    "5770": "DES",
    "5771": "DET",
    "5772": "DEV",
    "5773": "DEX",
    "5774": "DIC",
    "5775": "DIG",
    "5776": "DIM",
    "5777": "DIR",
    "5778": "DIS",
    "5779": "DIV",
    "5780": "DLL",
    "5781": "DNA",
    "5782": "DNS",
    "5783": "DOC",
    "5784": "DOM",
    "5785": "DON",
    "5786": "DOT",
    "5787": "DTD",
    "5788": "DVD",
    "5789": "Dal",
    "5790": "Dam",
    "5791": "Dan",
    "5792": "Dao",
    "5793": "Dar",
    "5794": "Das",
    "5795": "Dat",
    "5796": "Dav",
    "5797": "Day",
    "5798": "Deb",
    "5799": "Dec",
    "5800": "Def",
    "5801": "Deg",
    "5802": "Del",
    "5803": "Dem",
    "5804": "Den",
    "5805": "Dep",
    "5806": "Der",
    "5807": "Des",
    "5808": "Det",
    "5809": "Dev",
    "5810": "Dic",
    "5811": "Did",
    "5812": "Die",
    "5813": "Dig",
    "5814": "Dim",
    "5815": "Dir",
    "5816": "Dis",
    "5817": "Div",
    "5818": "Dlg",
    "5819": "Doc",
    "5820": "Dog",
    "5821": "Dom",
    "5822": "Don",
    "5823": "Dot",
    "5824": "Dou",
    "5825": "Dry",
    "5826": "Dub",
    "5827": "Due",
    "5828": "Dup",
    "5829": "Dur",
    "5830": "Dyn",
    "5831": "D\u00e9",
    "5832": "EAR",
    "5833": "ECD",
    "5834": "ECK",
    "5835": "ECT",
    "5836": "EEE",
    "5837": "EEK",
    "5838": "EFF",
    "5839": "ELD",
    "5840": "ELE",
    "5841": "ELL",
    "5842": "ELS",
    "5843": "ELY",
    "5844": "EMA",
    "5845": "EMP",
    "5846": "ENA",
    "5847": "ENC",
    "5848": "END",
    "5849": "ENE",
    "5850": "ENG",
    "5851": "ENO",
    "5852": "ENS",
    "5853": "ENT",
    "5854": "ENV",
    "5855": "EOF",
    "5856": "EPS",
    "5857": "ERA",
    "5858": "ERC",
    "5859": "ERE",
    "5860": "ERN",
    "5861": "ERO",
    "5862": "ERR",
    "5863": "ERS",
    "5864": "ERT",
    "5865": "ERV",
    "5866": "ERY",
    "5867": "ESA",
    "5868": "ESC",
    "5869": "ESH",
    "5870": "ESP",
    "5871": "ESS",
    "5872": "EST",
    "5873": "ETA",
    "5874": "ETH",
    "5875": "ETS",
    "5876": "EUR",
    "5877": "EXP",
    "5878": "EXT",
    "5879": "Ear",
    "5880": "Eff",
    "5881": "Ele",
    "5882": "Ell",
    "5883": "Emb",
    "5884": "Emp",
    "5885": "Enc",
    "5886": "End",
    "5887": "Eng",
    "5888": "Enh",
    "5889": "Ent",
    "5890": "Env",
    "5891": "Equ",
    "5892": "Err",
    "5893": "Esc",
    "5894": "Esp",
    "5895": "Ess",
    "5896": "Est",
    "5897": "Eth",
    "5898": "Exc",
    "5899": "Exp",
    "5900": "Ext",
    "5901": "Eye",
    "5902": "FER",
    "5903": "FET",
    "5904": "FFF",
    "5905": "FFT",
    "5906": "FIG",
    "5907": "FIL",
    "5908": "FIN",
    "5909": "FIR",
    "5910": "FIT",
    "5911": "FIX",
    "5912": "FLO",
    "5913": "FOR",
    "5914": "FUN",
    "5915": "Fab",
    "5916": "Fac",
    "5917": "Fal",
    "5918": "Fan",
    "5919": "Far",
    "5920": "Fat",
    "5921": "Feb",
    "5922": "Fed",
    "5923": "Fel",
    "5924": "Fer",
    "5925": "Few",
    "5926": "Fig",
    "5927": "Fil",
    "5928": "Fin",
    "5929": "Fit",
    "5930": "Fix",
    "5931": "Flo",
    "5932": "Flu",
    "5933": "Fly",
    "5934": "Fmt",
    "5935": "Foo",
    "5936": "For",
    "5937": "Fox",
    "5938": "Fra",
    "5939": "Fre",
    "5940": "Fri",
    "5941": "Fun",
    "5942": "GAL",
    "5943": "GAN",
    "5944": "GAT",
    "5945": "GBT",
    "5946": "GCC",
    "5947": "GEN",
    "5948": "GER",
    "5949": "GES",
    "5950": "GET",
    "5951": "GHz",
    "5952": "GIN",
    "5953": "GIS",
    "5954": "GIT",
    "5955": "GLE",
    "5956": "GMT",
    "5957": "GNU",
    "5958": "GPL",
    "5959": "GPS",
    "5960": "GPU",
    "5961": "GRA",
    "5962": "GRE",
    "5963": "GRO",
    "5964": "GRP",
    "5965": "GUI",
    "5966": "Gab",
    "5967": "Gal",
    "5968": "Gap",
    "5969": "Gar",
    "5970": "Gas",
    "5971": "GeV",
    "5972": "Gem",
    "5973": "Gen",
    "5974": "Geo",
    "5975": "Ger",
    "5976": "Get",
    "5977": "Gib",
    "5978": "Gil",
    "5979": "Git",
    "5980": "God",
    "5981": "Got",
    "5982": "Gra",
    "5983": "Gre",
    "5984": "Gro",
    "5985": "Gui",
    "5986": "Gun",
    "5987": "Guy",
    "5988": "HAL",
    "5989": "HAS",
    "5990": "HEL",
    "5991": "HER",
    "5992": "HIV",
    "5993": "HOW",
    "5994": "Had",
    "5995": "Hal",
    "5996": "Ham",
    "5997": "Han",
    "5998": "Har",
    "5999": "Has",
    "6000": "Haw",
    "6001": "Hay",
    "6002": "Haz",
    "6003": "Hel",
    "6004": "Hen",
    "6005": "Her",
    "6006": "Hex",
    "6007": "Hey",
    "6008": "Hig",
    "6009": "Hip",
    "6010": "His",
    "6011": "Hit",
    "6012": "Hol",
    "6013": "Hom",
    "6014": "Hon",
    "6015": "Hop",
    "6016": "Hor",
    "6017": "Hot",
    "6018": "How",
    "6019": "Hub",
    "6020": "Hum",
    "6021": "IAL",
    "6022": "IAN",
    "6023": "IAS",
    "6024": "IBM",
    "6025": "ICA",
    "6026": "ICC",
    "6027": "ICE",
    "6028": "ICH",
    "6029": "ICI",
    "6030": "ICK",
    "6031": "ICO",
    "6032": "ICS",
    "6033": "ICT",
    "6034": "IDA",
    "6035": "IDD",
    "6036": "IDE",
    "6037": "IDI",
    "6038": "IDS",
    "6039": "IDs",
    "6040": "IED",
    "6041": "IER",
    "6042": "IES",
    "6043": "IEW",
    "6044": "IFE",
    "6045": "IFF",
    "6046": "IFI",
    "6047": "IFT",
    "6048": "IFY",
    "6049": "IGH",
    "6050": "IGN",
    "6051": "III",
    "6052": "ILD",
    "6053": "ILE",
    "6054": "ILL",
    "6055": "ILS",
    "6056": "ILY",
    "6057": "IMA",
    "6058": "IME",
    "6059": "IMG",
    "6060": "IMO",
    "6061": "IMP",
    "6062": "IMS",
    "6063": "INA",
    "6064": "INC",
    "6065": "IND",
    "6066": "INE",
    "6067": "INF",
    "6068": "ING",
    "6069": "INI",
    "6070": "INK",
    "6071": "INO",
    "6072": "INS",
    "6073": "INT",
    "6074": "ION",
    "6075": "IOR",
    "6076": "IOS",
    "6077": "IPA",
    "6078": "IPP",
    "6079": "IPS",
    "6080": "IPT",
    "6081": "IPV",
    "6082": "IPv",
    "6083": "IRA",
    "6084": "IRC",
    "6085": "IRD",
    "6086": "IRE",
    "6087": "IRS",
    "6088": "IRT",
    "6089": "ISA",
    "6090": "ISC",
    "6091": "ISE",
    "6092": "ISH",
    "6093": "ISM",
    "6094": "ISO",
    "6095": "ISP",
    "6096": "ISS",
    "6097": "IST",
    "6098": "ITA",
    "6099": "ITE",
    "6100": "ITH",
    "6101": "ITS",
    "6102": "ITT",
    "6103": "ITY",
    "6104": "IUM",
    "6105": "IVE",
    "6106": "IZE",
    "6107": "Ice",
    "6108": "Ich",
    "6109": "Ide",
    "6110": "Ids",
    "6111": "Idx",
    "6112": "Ign",
    "6113": "Ill",
    "6114": "Img",
    "6115": "Imm",
    "6116": "Imp",
    "6117": "Inc",
    "6118": "Ind",
    "6119": "Inf",
    "6120": "Ing",
    "6121": "Ini",
    "6122": "Ins",
    "6123": "Int",
    "6124": "Inv",
    "6125": "Ion",
    "6126": "Isa",
    "6127": "Isn",
    "6128": "Iso",
    "6129": "Iss",
    "6130": "Its",
    "6131": "JOB",
    "6132": "JPG",
    "6133": "Jac",
    "6134": "Jam",
    "6135": "Jan",
    "6136": "Jar",
    "6137": "Jay",
    "6138": "Jen",
    "6139": "Jer",
    "6140": "Jet",
    "6141": "Jim",
    "6142": "Job",
    "6143": "Joe",
    "6144": "Joh",
    "6145": "Jon",
    "6146": "Jos",
    "6147": "Joy",
    "6148": "Jud",
    "6149": "Jul",
    "6150": "Jun",
    "6151": "KEN",
    "6152": "KER",
    "6153": "KEY",
    "6154": "Kal",
    "6155": "Kam",
    "6156": "Kar",
    "6157": "Kat",
    "6158": "Kay",
    "6159": "Ken",
    "6160": "Ker",
    "6161": "Key",
    "6162": "Kim",
    "6163": "Kin",
    "6164": "Kir",
    "6165": "Kit",
    "6166": "Kon",
    "6167": "LAB",
    "6168": "LAN",
    "6169": "LAR",
    "6170": "LAS",
    "6171": "LAT",
    "6172": "LAY",
    "6173": "LED",
    "6174": "LEN",
    "6175": "LER",
    "6176": "LES",
    "6177": "LET",
    "6178": "LEV",
    "6179": "LEX",
    "6180": "LEY",
    "6181": "LIB",
    "6182": "LIN",
    "6183": "LOB",
    "6184": "LOC",
    "6185": "LOG",
    "6186": "LOS",
    "6187": "LOW",
    "6188": "Lab",
    "6189": "Lag",
    "6190": "Lam",
    "6191": "Lap",
    "6192": "Lar",
    "6193": "Las",
    "6194": "Lat",
    "6195": "Law",
    "6196": "Lay",
    "6197": "Lbl",
    "6198": "Lee",
    "6199": "Leg",
    "6200": "Len",
    "6201": "Les",
    "6202": "Let",
    "6203": "Lev",
    "6204": "Lew",
    "6205": "Lex",
    "6206": "Lib",
    "6207": "Lic",
    "6208": "Lie",
    "6209": "Lif",
    "6210": "Lik",
    "6211": "Lim",
    "6212": "Lin",
    "6213": "Lip",
    "6214": "Lit",
    "6215": "Lng",
    "6216": "Loc",
    "6217": "Log",
    "6218": "Lon",
    "6219": "Los",
    "6220": "Lot",
    "6221": "Lou",
    "6222": "Low",
    "6223": "Lua",
    "6224": "Luc",
    "6225": "Lux",
    "6226": "MAC",
    "6227": "MAG",
    "6228": "MAL",
    "6229": "MAN",
    "6230": "MAP",
    "6231": "MAR",
    "6232": "MAS",
    "6233": "MAT",
    "6234": "MAX",
    "6235": "MED",
    "6236": "MEM",
    "6237": "MEN",
    "6238": "MER",
    "6239": "MES",
    "6240": "MET",
    "6241": "MHz",
    "6242": "MIC",
    "6243": "MIN",
    "6244": "MIS",
    "6245": "MIT",
    "6246": "MIX",
    "6247": "MLE",
    "6248": "MLP",
    "6249": "MOD",
    "6250": "MON",
    "6251": "MOS",
    "6252": "MOV",
    "6253": "MPI",
    "6254": "MPL",
    "6255": "MRI",
    "6256": "MSC",
    "6257": "MSE",
    "6258": "MSG",
    "6259": "Mac",
    "6260": "Mad",
    "6261": "Mag",
    "6262": "Mah",
    "6263": "Mal",
    "6264": "Man",
    "6265": "Map",
    "6266": "Mar",
    "6267": "Mas",
    "6268": "Mat",
    "6269": "Max",
    "6270": "May",
    "6271": "McC",
    "6272": "Med",
    "6273": "Meg",
    "6274": "Mel",
    "6275": "Mem",
    "6276": "Men",
    "6277": "Mer",
    "6278": "Mes",
    "6279": "Met",
    "6280": "Mex",
    "6281": "Mgr",
    "6282": "Mic",
    "6283": "Mid",
    "6284": "Mil",
    "6285": "Min",
    "6286": "Mir",
    "6287": "Mis",
    "6288": "Mit",
    "6289": "Mix",
    "6290": "Mob",
    "6291": "Mod",
    "6292": "Moh",
    "6293": "Mol",
    "6294": "Mom",
    "6295": "Mon",
    "6296": "Mor",
    "6297": "Mot",
    "6298": "Mov",
    "6299": "Mrs",
    "6300": "Msg",
    "6301": "Mul",
    "6302": "Mur",
    "6303": "Mus",
    "6304": "Mut",
    "6305": "Mvc",
    "6306": "NAL",
    "6307": "NAM",
    "6308": "NAS",
    "6309": "NAT",
    "6310": "NBC",
    "6311": "NEL",
    "6312": "NER",
    "6313": "NES",
    "6314": "NET",
    "6315": "NEW",
    "6316": "NON",
    "6317": "NOR",
    "6318": "NOT",
    "6319": "NOW",
    "6320": "NPC",
    "6321": "NUM",
    "6322": "NaN",
    "6323": "Nam",
    "6324": "Nan",
    "6325": "Nat",
    "6326": "Nav",
    "6327": "Neg",
    "6328": "Net",
    "6329": "New",
    "6330": "Nic",
    "6331": "Nik",
    "6332": "Nil",
    "6333": "Nit",
    "6334": "Nom",
    "6335": "Non",
    "6336": "Nor",
    "6337": "Nos",
    "6338": "Not",
    "6339": "Nov",
    "6340": "Now",
    "6341": "Num",
    "6342": "OBJ",
    "6343": "OCI",
    "6344": "OCK",
    "6345": "OCT",
    "6346": "ODE",
    "6347": "ODO",
    "6348": "ODY",
    "6349": "OFF",
    "6350": "OID",
    "6351": "OLD",
    "6352": "OME",
    "6353": "ONA",
    "6354": "OND",
    "6355": "ONE",
    "6356": "ONG",
    "6357": "ONS",
    "6358": "ONT",
    "6359": "OPS",
    "6360": "OPT",
    "6361": "ORA",
    "6362": "ORD",
    "6363": "ORE",
    "6364": "ORG",
    "6365": "ORK",
    "6366": "ORM",
    "6367": "ORN",
    "6368": "ORS",
    "6369": "ORT",
    "6370": "ORY",
    "6371": "OSE",
    "6372": "OSS",
    "6373": "OST",
    "6374": "OTA",
    "6375": "OTE",
    "6376": "OTH",
    "6377": "OTO",
    "6378": "OTP",
    "6379": "OTS",
    "6380": "OTT",
    "6381": "OUR",
    "6382": "OUS",
    "6383": "OUT",
    "6384": "OVA",
    "6385": "OVE",
    "6386": "OWN",
    "6387": "Obj",
    "6388": "Obs",
    "6389": "Occ",
    "6390": "Oct",
    "6391": "Off",
    "6392": "Old",
    "6393": "One",
    "6394": "Ont",
    "6395": "Opp",
    "6396": "Ops",
    "6397": "Opt",
    "6398": "Ord",
    "6399": "Org",
    "6400": "Ori",
    "6401": "Our",
    "6402": "Out",
    "6403": "Own",
    "6404": "PAD",
    "6405": "PAN",
    "6406": "PAR",
    "6407": "PAS",
    "6408": "PAT",
    "6409": "PBS",
    "6410": "PCA",
    "6411": "PCI",
    "6412": "PCM",
    "6413": "PCR",
    "6414": "PDF",
    "6415": "PED",
    "6416": "PEG",
    "6417": "PER",
    "6418": "PET",
    "6419": "PHA",
    "6420": "PHP",
    "6421": "PIC",
    "6422": "PID",
    "6423": "PIN",
    "6424": "PIO",
    "6425": "PIP",
    "6426": "PLA",
    "6427": "PLC",
    "6428": "PLE",
    "6429": "PNG",
    "6430": "POL",
    "6431": "POP",
    "6432": "POR",
    "6433": "POS",
    "6434": "PRE",
    "6435": "PRI",
    "6436": "PRO",
    "6437": "PTR",
    "6438": "PUT",
    "6439": "PWM",
    "6440": "Pac",
    "6441": "Pad",
    "6442": "Pag",
    "6443": "Pak",
    "6444": "Pal",
    "6445": "Pan",
    "6446": "Pap",
    "6447": "Par",
    "6448": "Pas",
    "6449": "Pat",
    "6450": "Pay",
    "6451": "Pdf",
    "6452": "Ped",
    "6453": "Pen",
    "6454": "Per",
    "6455": "Pet",
    "6456": "Phi",
    "6457": "Pic",
    "6458": "Pie",
    "6459": "Pin",
    "6460": "Pix",
    "6461": "Pod",
    "6462": "Pol",
    "6463": "Pop",
    "6464": "Por",
    "6465": "Pos",
    "6466": "Pot",
    "6467": "Pow",
    "6468": "Pre",
    "6469": "Pri",
    "6470": "Pro",
    "6471": "Psi",
    "6472": "Ptr",
    "6473": "Pub",
    "6474": "Pur",
    "6475": "Put",
    "6476": "QUE",
    "6477": "Qty",
    "6478": "Que",
    "6479": "Qui",
    "6480": "RAD",
    "6481": "RAL",
    "6482": "RAM",
    "6483": "RAN",
    "6484": "RAW",
    "6485": "RAY",
    "6486": "REC",
    "6487": "RED",
    "6488": "REE",
    "6489": "REF",
    "6490": "REG",
    "6491": "REL",
    "6492": "REM",
    "6493": "REN",
    "6494": "REP",
    "6495": "REQ",
    "6496": "RES",
    "6497": "RET",
    "6498": "RFC",
    "6499": "RGB",
    "6500": "RIC",
    "6501": "RIX",
    "6502": "RMS",
    "6503": "RNA",
    "6504": "RNN",
    "6505": "ROC",
    "6506": "ROI",
    "6507": "ROL",
    "6508": "ROM",
    "6509": "RON",
    "6510": "ROP",
    "6511": "ROS",
    "6512": "ROT",
    "6513": "ROW",
    "6514": "RPC",
    "6515": "RSA",
    "6516": "RSS",
    "6517": "RTC",
    "6518": "RUN",
    "6519": "Rab",
    "6520": "Rad",
    "6521": "Ram",
    "6522": "Rat",
    "6523": "Raw",
    "6524": "Ray",
    "6525": "Rec",
    "6526": "Red",
    "6527": "Ref",
    "6528": "Reg",
    "6529": "Rel",
    "6530": "Rem",
    "6531": "Ren",
    "6532": "Rep",
    "6533": "Req",
    "6534": "Res",
    "6535": "Ret",
    "6536": "Rev",
    "6537": "Rew",
    "6538": "Ric",
    "6539": "Rob",
    "6540": "Rod",
    "6541": "Rol",
    "6542": "Rom",
    "6543": "Ron",
    "6544": "Ros",
    "6545": "Rot",
    "6546": "Row",
    "6547": "Roy",
    "6548": "Rub",
    "6549": "Run",
    "6550": "R\u00e9",
    "6551": "SAM",
    "6552": "SAN",
    "6553": "SAT",
    "6554": "SCH",
    "6555": "SCI",
    "6556": "SCO",
    "6557": "SCR",
    "6558": "SDK",
    "6559": "SDL",
    "6560": "SEC",
    "6561": "SED",
    "6562": "SEE",
    "6563": "SEG",
    "6564": "SEL",
    "6565": "SEM",
    "6566": "SEP",
    "6567": "SEQ",
    "6568": "SER",
    "6569": "SET",
    "6570": "SHA",
    "6571": "SID",
    "6572": "SIG",
    "6573": "SIM",
    "6574": "SMS",
    "6575": "SNP",
    "6576": "SOC",
    "6577": "SOL",
    "6578": "SON",
    "6579": "SPE",
    "6580": "SPI",
    "6581": "SQL",
    "6582": "SRC",
    "6583": "SSH",
    "6584": "SSL",
    "6585": "STA",
    "6586": "STD",
    "6587": "STE",
    "6588": "STM",
    "6589": "STR",
    "6590": "STS",
    "6591": "SUB",
    "6592": "SUM",
    "6593": "SUP",
    "6594": "SUR",
    "6595": "SVG",
    "6596": "SYS",
    "6597": "Sab",
    "6598": "Sac",
    "6599": "Sad",
    "6600": "Saf",
    "6601": "Sal",
    "6602": "Sam",
    "6603": "San",
    "6604": "Sar",
    "6605": "Sat",
    "6606": "Sav",
    "6607": "Say",
    "6608": "Sch",
    "6609": "Sci",
    "6610": "Sdk",
    "6611": "Sea",
    "6612": "Sec",
    "6613": "See",
    "6614": "Seg",
    "6615": "Sel",
    "6616": "Sem",
    "6617": "Sen",
    "6618": "Sep",
    "6619": "Seq",
    "6620": "Ser",
    "6621": "Set",
    "6622": "Sex",
    "6623": "Sha",
    "6624": "She",
    "6625": "Sid",
    "6626": "Sig",
    "6627": "Sil",
    "6628": "Sim",
    "6629": "Sin",
    "6630": "Sir",
    "6631": "Sit",
    "6632": "Six",
    "6633": "Sky",
    "6634": "Soc",
    "6635": "Sol",
    "6636": "Son",
    "6637": "Sou",
    "6638": "Spe",
    "6639": "Spl",
    "6640": "Spr",
    "6641": "Spy",
    "6642": "Sql",
    "6643": "Squ",
    "6644": "Src",
    "6645": "Sta",
    "6646": "Std",
    "6647": "Ste",
    "6648": "Sto",
    "6649": "Str",
    "6650": "Sty",
    "6651": "Sub",
    "6652": "Suc",
    "6653": "Sud",
    "6654": "Sum",
    "6655": "Sun",
    "6656": "Sup",
    "6657": "Sur",
    "6658": "Sus",
    "6659": "Sym",
    "6660": "Syn",
    "6661": "Sys",
    "6662": "TAB",
    "6663": "TAG",
    "6664": "TCP",
    "6665": "TED",
    "6666": "TEM",
    "6667": "TER",
    "6668": "TES",
    "6669": "TEX",
    "6670": "THE",
    "6671": "TIM",
    "6672": "TLS",
    "6673": "TMP",
    "6674": "TON",
    "6675": "TOP",
    "6676": "TOR",
    "6677": "TRA",
    "6678": "TRY",
    "6679": "Tab",
    "6680": "Tag",
    "6681": "Tai",
    "6682": "Tak",
    "6683": "Tal",
    "6684": "Tam",
    "6685": "Tan",
    "6686": "Tap",
    "6687": "Tar",
    "6688": "Tax",
    "6689": "TeV",
    "6690": "TeX",
    "6691": "Ted",
    "6692": "Tek",
    "6693": "Tel",
    "6694": "Tem",
    "6695": "Ten",
    "6696": "Ter",
    "6697": "Tes",
    "6698": "Tex",
    "6699": "The",
    "6700": "Thu",
    "6701": "Tim",
    "6702": "Tip",
    "6703": "Tit",
    "6704": "Tmp",
    "6705": "Tok",
    "6706": "Tom",
    "6707": "Ton",
    "6708": "Too",
    "6709": "Top",
    "6710": "Tor",
    "6711": "Tot",
    "6712": "Toy",
    "6713": "Tra",
    "6714": "Tre",
    "6715": "Tri",
    "6716": "Tro",
    "6717": "Try",
    "6718": "Tue",
    "6719": "Tur",
    "6720": "Two",
    "6721": "Txt",
    "6722": "Typ",
    "6723": "UAL",
    "6724": "UCK",
    "6725": "UCT",
    "6726": "UDP",
    "6727": "UES",
    "6728": "UFF",
    "6729": "UGH",
    "6730": "UID",
    "6731": "UIT",
    "6732": "ULD",
    "6733": "ULE",
    "6734": "ULL",
    "6735": "ULT",
    "6736": "UME",
    "6737": "UMN",
    "6738": "UMP",
    "6739": "UNC",
    "6740": "UND",
    "6741": "UNE",
    "6742": "UNK",
    "6743": "UNT",
    "6744": "URA",
    "6745": "URE",
    "6746": "URI",
    "6747": "URL",
    "6748": "URN",
    "6749": "URS",
    "6750": "USA",
    "6751": "USB",
    "6752": "USD",
    "6753": "USE",
    "6754": "USH",
    "6755": "USS",
    "6756": "UST",
    "6757": "UTC",
    "6758": "UTE",
    "6759": "UTF",
    "6760": "UTH",
    "6761": "Uid",
    "6762": "Ult",
    "6763": "Und",
    "6764": "Uni",
    "6765": "Uns",
    "6766": "Uri",
    "6767": "Url",
    "6768": "Use",
    "6769": "Usu",
    "6770": "VAL",
    "6771": "VAR",
    "6772": "VED",
    "6773": "VEL",
    "6774": "VEN",
    "6775": "VER",
    "6776": "VES",
    "6777": "VIC",
    "6778": "VID",
    "6779": "VIE",
    "6780": "VII",
    "6781": "VIS",
    "6782": "VOL",
    "6783": "VPN",
    "6784": "Vac",
    "6785": "Val",
    "6786": "Van",
    "6787": "Var",
    "6788": "Vec",
    "6789": "Vel",
    "6790": "Ven",
    "6791": "Ver",
    "6792": "Via",
    "6793": "Vin",
    "6794": "Vir",
    "6795": "Vis",
    "6796": "Vol",
    "6797": "WAR",
    "6798": "WAY",
    "6799": "WEB",
    "6800": "WER",
    "6801": "WHO",
    "6802": "WID",
    "6803": "WIN",
    "6804": "WOR",
    "6805": "Wal",
    "6806": "War",
    "6807": "Was",
    "6808": "Wat",
    "6809": "Way",
    "6810": "Web",
    "6811": "Wed",
    "6812": "Wel",
    "6813": "Who",
    "6814": "Why",
    "6815": "Wik",
    "6816": "Wil",
    "6817": "Win",
    "6818": "Wol",
    "6819": "Won",
    "6820": "Wow",
    "6821": "XML",
    "6822": "XXX",
    "6823": "XYZ",
    "6824": "Xiv",
    "6825": "Xml",
    "6826": "YES",
    "6827": "YLE",
    "6828": "YOU",
    "6829": "YPE",
    "6830": "YYY",
    "6831": "Yes",
    "6832": "Yet",
    "6833": "You",
    "6834": "ZIP",
    "6835": "Zen",
    "6836": "Zip",
    "6837": "['_",
    "6838": "[:,",
    "6839": "[:-",
    "6840": "[:]",
    "6841": "[['",
    "6842": "[])",
    "6843": "[],",
    "6844": "[]{",
    "6845": "\\\"\"",
    "6846": "\\\",",
    "6847": "\\\":",
    "6848": "\\\">",
    "6849": "\\\\\\",
    "6850": "\\}$",
    "6851": "]\")",
    "6852": "]\",",
    "6853": "]',",
    "6854": "](#",
    "6855": "]))",
    "6856": "]),",
    "6857": "]).",
    "6858": "]):",
    "6859": "]);",
    "6860": "],[",
    "6861": "]->",
    "6862": "].[",
    "6863": "]=\"",
    "6864": "][\"",
    "6865": "]['",
    "6866": "]\\\\",
    "6867": "]])",
    "6868": "]],",
    "6869": "]];",
    "6870": "]},",
    "6871": "^{+",
    "6872": "^{-",
    "6873": "^{\\",
    "6874": "_(\"",
    "6875": "_('",
    "6876": "_->",
    "6877": "__(",
    "6878": "__)",
    "6879": "__,",
    "6880": "__.",
    "6881": "___",
    "6882": "_{\\",
    "6883": "`).",
    "6884": "```",
    "6885": "aaa",
    "6886": "aab",
    "6887": "aan",
    "6888": "aar",
    "6889": "aba",
    "6890": "abb",
    "6891": "abc",
    "6892": "abd",
    "6893": "abe",
    "6894": "abi",
    "6895": "abl",
    "6896": "abo",
    "6897": "abr",
    "6898": "abs",
    "6899": "aby",
    "6900": "aca",
    "6901": "acc",
    "6902": "ace",
    "6903": "ach",
    "6904": "aci",
    "6905": "ack",
    "6906": "acl",
    "6907": "aco",
    "6908": "acs",
    "6909": "act",
    "6910": "acy",
    "6911": "ada",
    "6912": "adb",
    "6913": "add",
    "6914": "ade",
    "6915": "adh",
    "6916": "adi",
    "6917": "adj",
    "6918": "adm",
    "6919": "ado",
    "6920": "adr",
    "6921": "ads",
    "6922": "adt",
    "6923": "adu",
    "6924": "adv",
    "6925": "ady",
    "6926": "aea",
    "6927": "ael",
    "6928": "aes",
    "6929": "afa",
    "6930": "afe",
    "6931": "aff",
    "6932": "afi",
    "6933": "aft",
    "6934": "aga",
    "6935": "age",
    "6936": "agg",
    "6937": "agh",
    "6938": "agi",
    "6939": "agn",
    "6940": "ago",
    "6941": "agr",
    "6942": "ags",
    "6943": "agt",
    "6944": "agu",
    "6945": "agy",
    "6946": "aha",
    "6947": "ahi",
    "6948": "ahl",
    "6949": "ahn",
    "6950": "aho",
    "6951": "ahr",
    "6952": "ahu",
    "6953": "aic",
    "6954": "aid",
    "6955": "ail",
    "6956": "aim",
    "6957": "ain",
    "6958": "air",
    "6959": "ais",
    "6960": "ait",
    "6961": "aja",
    "6962": "aje",
    "6963": "aji",
    "6964": "ajo",
    "6965": "aju",
    "6966": "aka",
    "6967": "ake",
    "6968": "akh",
    "6969": "aki",
    "6970": "akk",
    "6971": "ako",
    "6972": "aks",
    "6973": "akt",
    "6974": "aku",
    "6975": "aky",
    "6976": "ala",
    "6977": "alc",
    "6978": "ald",
    "6979": "ale",
    "6980": "alf",
    "6981": "alg",
    "6982": "ali",
    "6983": "alk",
    "6984": "all",
    "6985": "alm",
    "6986": "alo",
    "6987": "als",
    "6988": "alt",
    "6989": "alu",
    "6990": "aly",
    "6991": "ama",
    "6992": "amb",
    "6993": "amd",
    "6994": "ame",
    "6995": "ami",
    "6996": "aml",
    "6997": "amm",
    "6998": "amo",
    "6999": "amp",
    "7000": "ams",
    "7001": "amt",
    "7002": "amy",
    "7003": "ana",
    "7004": "anc",
    "7005": "and",
    "7006": "ane",
    "7007": "ang",
    "7008": "anh",
    "7009": "ani",
    "7010": "anj",
    "7011": "ank",
    "7012": "ann",
    "7013": "ano",
    "7014": "ans",
    "7015": "ant",
    "7016": "anu",
    "7017": "any",
    "7018": "anz",
    "7019": "aos",
    "7020": "apa",
    "7021": "ape",
    "7022": "aph",
    "7023": "api",
    "7024": "apk",
    "7025": "apo",
    "7026": "app",
    "7027": "apr",
    "7028": "aps",
    "7029": "apt",
    "7030": "apy",
    "7031": "aqu",
    "7032": "ara",
    "7033": "arb",
    "7034": "arc",
    "7035": "ard",
    "7036": "are",
    "7037": "arf",
    "7038": "arg",
    "7039": "ari",
    "7040": "ark",
    "7041": "arl",
    "7042": "arm",
    "7043": "arn",
    "7044": "aro",
    "7045": "arp",
    "7046": "arr",
    "7047": "ars",
    "7048": "art",
    "7049": "aru",
    "7050": "ary",
    "7051": "asa",
    "7052": "asc",
    "7053": "ase",
    "7054": "ash",
    "7055": "asi",
    "7056": "ask",
    "7057": "asm",
    "7058": "aso",
    "7059": "asp",
    "7060": "ass",
    "7061": "ast",
    "7062": "asu",
    "7063": "asy",
    "7064": "asz",
    "7065": "ata",
    "7066": "ate",
    "7067": "ath",
    "7068": "ati",
    "7069": "atl",
    "7070": "ato",
    "7071": "atr",
    "7072": "ats",
    "7073": "att",
    "7074": "atu",
    "7075": "aty",
    "7076": "atz",
    "7077": "auc",
    "7078": "aud",
    "7079": "auf",
    "7080": "aug",
    "7081": "aul",
    "7082": "aur",
    "7083": "aus",
    "7084": "aut",
    "7085": "aux",
    "7086": "ava",
    "7087": "ave",
    "7088": "avg",
    "7089": "avi",
    "7090": "avo",
    "7091": "avy",
    "7092": "awa",
    "7093": "awi",
    "7094": "awk",
    "7095": "awn",
    "7096": "aws",
    "7097": "awt",
    "7098": "axe",
    "7099": "axy",
    "7100": "aya",
    "7101": "aye",
    "7102": "ays",
    "7103": "aza",
    "7104": "aze",
    "7105": "azi",
    "7106": "azo",
    "7107": "azu",
    "7108": "azy",
    "7109": "azz",
    "7110": "a\u00f1",
    "7111": "a\u0107",
    "7112": "a\u0142",
    "7113": "a\u017c",
    "7114": "bab",
    "7115": "bac",
    "7116": "bad",
    "7117": "bag",
    "7118": "bah",
    "7119": "bai",
    "7120": "bak",
    "7121": "bal",
    "7122": "bam",
    "7123": "ban",
    "7124": "bar",
    "7125": "bas",
    "7126": "bat",
    "7127": "bau",
    "7128": "bay",
    "7129": "baz",
    "7130": "bbc",
    "7131": "bbe",
    "7132": "bdd",
    "7133": "bec",
    "7134": "bed",
    "7135": "bee",
    "7136": "bef",
    "7137": "beg",
    "7138": "beh",
    "7139": "bei",
    "7140": "bek",
    "7141": "bel",
    "7142": "ben",
    "7143": "ber",
    "7144": "bes",
    "7145": "bet",
    "7146": "bey",
    "7147": "bfd",
    "7148": "bia",
    "7149": "bib",
    "7150": "bic",
    "7151": "bid",
    "7152": "bie",
    "7153": "big",
    "7154": "bil",
    "7155": "bin",
    "7156": "bio",
    "7157": "bir",
    "7158": "bis",
    "7159": "bit",
    "7160": "biz",
    "7161": "bla",
    "7162": "ble",
    "7163": "blk",
    "7164": "blo",
    "7165": "blr",
    "7166": "bly",
    "7167": "bmp",
    "7168": "bnb",
    "7169": "boa",
    "7170": "bob",
    "7171": "bol",
    "7172": "bon",
    "7173": "boo",
    "7174": "bor",
    "7175": "bos",
    "7176": "bot",
    "7177": "bow",
    "7178": "box",
    "7179": "boy",
    "7180": "bps",
    "7181": "bra",
    "7182": "bre",
    "7183": "bro",
    "7184": "bru",
    "7185": "bsd",
    "7186": "bst",
    "7187": "btn",
    "7188": "bud",
    "7189": "buf",
    "7190": "bug",
    "7191": "bul",
    "7192": "bum",
    "7193": "bur",
    "7194": "bus",
    "7195": "but",
    "7196": "buy",
    "7197": "bye",
    "7198": "bys",
    "7199": "b\u00e9",
    "7200": "b\u00fc",
    "7201": "b\u011b",
    "7202": "cab",
    "7203": "cac",
    "7204": "cad",
    "7205": "cal",
    "7206": "cam",
    "7207": "can",
    "7208": "cap",
    "7209": "car",
    "7210": "cas",
    "7211": "cat",
    "7212": "cca",
    "7213": "ccc",
    "7214": "cci",
    "7215": "cco",
    "7216": "cdf",
    "7217": "cdn",
    "7218": "cea",
    "7219": "ced",
    "7220": "cel",
    "7221": "cem",
    "7222": "cen",
    "7223": "cep",
    "7224": "cer",
    "7225": "ces",
    "7226": "ceu",
    "7227": "cfg",
    "7228": "cgi",
    "7229": "cha",
    "7230": "che",
    "7231": "chi",
    "7232": "chk",
    "7233": "chl",
    "7234": "chn",
    "7235": "cho",
    "7236": "chr",
    "7237": "chs",
    "7238": "cht",
    "7239": "chu",
    "7240": "chy",
    "7241": "cia",
    "7242": "cid",
    "7243": "cie",
    "7244": "cig",
    "7245": "cii",
    "7246": "cil",
    "7247": "cin",
    "7248": "cio",
    "7249": "cip",
    "7250": "cir",
    "7251": "cis",
    "7252": "cit",
    "7253": "cke",
    "7254": "cki",
    "7255": "cko",
    "7256": "cks",
    "7257": "cla",
    "7258": "cle",
    "7259": "clf",
    "7260": "cli",
    "7261": "clk",
    "7262": "clo",
    "7263": "cls",
    "7264": "cmb",
    "7265": "cmd",
    "7266": "cmp",
    "7267": "cms",
    "7268": "cnt",
    "7269": "cod",
    "7270": "coe",
    "7271": "col",
    "7272": "com",
    "7273": "con",
    "7274": "cop",
    "7275": "cor",
    "7276": "cos",
    "7277": "cot",
    "7278": "cou",
    "7279": "cov",
    "7280": "cow",
    "7281": "cox",
    "7282": "cpp",
    "7283": "cpu",
    "7284": "cpy",
    "7285": "cra",
    "7286": "crc",
    "7287": "cre",
    "7288": "cri",
    "7289": "cro",
    "7290": "cru",
    "7291": "cry",
    "7292": "csr",
    "7293": "css",
    "7294": "csv",
    "7295": "cta",
    "7296": "ctl",
    "7297": "ctr",
    "7298": "ctu",
    "7299": "ctx",
    "7300": "cub",
    "7301": "cue",
    "7302": "cul",
    "7303": "cum",
    "7304": "cup",
    "7305": "cur",
    "7306": "cus",
    "7307": "cut",
    "7308": "cwd",
    "7309": "czy",
    "7310": "c\u00e9",
    "7311": "c\u00ed",
    "7312": "dac",
    "7313": "dad",
    "7314": "dag",
    "7315": "dal",
    "7316": "dam",
    "7317": "dan",
    "7318": "dao",
    "7319": "dap",
    "7320": "dar",
    "7321": "das",
    "7322": "dat",
    "7323": "dav",
    "7324": "day",
    "7325": "dbc",
    "7326": "dbg",
    "7327": "dbl",
    "7328": "ddd",
    "7329": "dea",
    "7330": "deb",
    "7331": "dec",
    "7332": "ded",
    "7333": "dee",
    "7334": "def",
    "7335": "deg",
    "7336": "dek",
    "7337": "del",
    "7338": "dem",
    "7339": "den",
    "7340": "dep",
    "7341": "der",
    "7342": "des",
    "7343": "det",
    "7344": "dev",
    "7345": "dex",
    "7346": "dez",
    "7347": "dfs",
    "7348": "dia",
    "7349": "dic",
    "7350": "did",
    "7351": "die",
    "7352": "dif",
    "7353": "dig",
    "7354": "dil",
    "7355": "dim",
    "7356": "din",
    "7357": "dio",
    "7358": "dip",
    "7359": "dir",
    "7360": "dis",
    "7361": "dit",
    "7362": "div",
    "7363": "dle",
    "7364": "dll",
    "7365": "dna",
    "7366": "dob",
    "7367": "doc",
    "7368": "dof",
    "7369": "dog",
    "7370": "doi",
    "7371": "dol",
    "7372": "dom",
    "7373": "don",
    "7374": "dor",
    "7375": "dos",
    "7376": "dot",
    "7377": "dou",
    "7378": "dpi",
    "7379": "dra",
    "7380": "dre",
    "7381": "dri",
    "7382": "dro",
    "7383": "drv",
    "7384": "dry",
    "7385": "dst",
    "7386": "dtd",
    "7387": "duc",
    "7388": "due",
    "7389": "dup",
    "7390": "dur",
    "7391": "dyn",
    "7392": "ead",
    "7393": "eah",
    "7394": "ean",
    "7395": "ear",
    "7396": "eas",
    "7397": "eat",
    "7398": "eau",
    "7399": "eba",
    "7400": "ebb",
    "7401": "eca",
    "7402": "ecc",
    "7403": "ecd",
    "7404": "ece",
    "7405": "ech",
    "7406": "eck",
    "7407": "ecl",
    "7408": "eco",
    "7409": "ecs",
    "7410": "ect",
    "7411": "eda",
    "7412": "edd",
    "7413": "ede",
    "7414": "edi",
    "7415": "edo",
    "7416": "eds",
    "7417": "edu",
    "7418": "edy",
    "7419": "eed",
    "7420": "een",
    "7421": "eer",
    "7422": "ees",
    "7423": "efe",
    "7424": "eff",
    "7425": "eft",
    "7426": "ega",
    "7427": "egg",
    "7428": "ego",
    "7429": "egr",
    "7430": "egu",
    "7431": "eil",
    "7432": "ein",
    "7433": "eka",
    "7434": "eki",
    "7435": "eks",
    "7436": "ekt",
    "7437": "ela",
    "7438": "eld",
    "7439": "ele",
    "7440": "elf",
    "7441": "eli",
    "7442": "ell",
    "7443": "elm",
    "7444": "eln",
    "7445": "elo",
    "7446": "elp",
    "7447": "els",
    "7448": "elt",
    "7449": "elu",
    "7450": "ely",
    "7451": "ema",
    "7452": "emb",
    "7453": "eme",
    "7454": "emi",
    "7455": "emn",
    "7456": "emo",
    "7457": "emp",
    "7458": "ems",
    "7459": "emu",
    "7460": "emy",
    "7461": "ena",
    "7462": "enc",
    "7463": "end",
    "7464": "ene",
    "7465": "enf",
    "7466": "eng",
    "7467": "enh",
    "7468": "eni",
    "7469": "enk",
    "7470": "enn",
    "7471": "eno",
    "7472": "ens",
    "7473": "ent",
    "7474": "enu",
    "7475": "env",
    "7476": "eny",
    "7477": "enz",
    "7478": "eof",
    "7479": "eon",
    "7480": "eor",
    "7481": "eph",
    "7482": "epi",
    "7483": "eps",
    "7484": "ept",
    "7485": "eqn",
    "7486": "equ",
    "7487": "era",
    "7488": "erb",
    "7489": "erc",
    "7490": "erd",
    "7491": "ere",
    "7492": "erg",
    "7493": "eri",
    "7494": "erk",
    "7495": "erm",
    "7496": "ern",
    "7497": "ero",
    "7498": "erp",
    "7499": "err",
    "7500": "ers",
    "7501": "ert",
    "7502": "erv",
    "7503": "ery",
    "7504": "esa",
    "7505": "esc",
    "7506": "ese",
    "7507": "esh",
    "7508": "esi",
    "7509": "esk",
    "7510": "eso",
    "7511": "esp",
    "7512": "ess",
    "7513": "est",
    "7514": "esy",
    "7515": "eta",
    "7516": "etc",
    "7517": "ete",
    "7518": "eth",
    "7519": "eti",
    "7520": "eto",
    "7521": "etr",
    "7522": "ets",
    "7523": "ett",
    "7524": "etu",
    "7525": "ety",
    "7526": "etz",
    "7527": "eur",
    "7528": "eus",
    "7529": "eva",
    "7530": "eve",
    "7531": "evt",
    "7532": "ews",
    "7533": "exc",
    "7534": "exe",
    "7535": "exp",
    "7536": "ext",
    "7537": "eye",
    "7538": "fab",
    "7539": "fac",
    "7540": "fal",
    "7541": "fan",
    "7542": "far",
    "7543": "fas",
    "7544": "fat",
    "7545": "fav",
    "7546": "fax",
    "7547": "feb",
    "7548": "fed",
    "7549": "fee",
    "7550": "fel",
    "7551": "fem",
    "7552": "fen",
    "7553": "fer",
    "7554": "fet",
    "7555": "few",
    "7556": "ffe",
    "7557": "fff",
    "7558": "ffi",
    "7559": "fft",
    "7560": "fib",
    "7561": "fic",
    "7562": "fid",
    "7563": "fif",
    "7564": "fig",
    "7565": "fil",
    "7566": "fin",
    "7567": "fir",
    "7568": "fit",
    "7569": "fix",
    "7570": "fld",
    "7571": "fle",
    "7572": "flo",
    "7573": "flu",
    "7574": "fly",
    "7575": "fmt",
    "7576": "fol",
    "7577": "fon",
    "7578": "foo",
    "7579": "for",
    "7580": "fos",
    "7581": "fox",
    "7582": "fra",
    "7583": "fre",
    "7584": "fri",
    "7585": "frm",
    "7586": "fro",
    "7587": "fst",
    "7588": "fte",
    "7589": "ftp",
    "7590": "fts",
    "7591": "fty",
    "7592": "ful",
    "7593": "fun",
    "7594": "fur",
    "7595": "fut",
    "7596": "f\u00e9",
    "7597": "f\u00f8",
    "7598": "f\u00fc",
    "7599": "gae",
    "7600": "gal",
    "7601": "gam",
    "7602": "gan",
    "7603": "gap",
    "7604": "gar",
    "7605": "gas",
    "7606": "gat",
    "7607": "gay",
    "7608": "gca",
    "7609": "gcc",
    "7610": "gcd",
    "7611": "geb",
    "7612": "ged",
    "7613": "geh",
    "7614": "gel",
    "7615": "gem",
    "7616": "gen",
    "7617": "geo",
    "7618": "geq",
    "7619": "ger",
    "7620": "ges",
    "7621": "get",
    "7622": "gew",
    "7623": "gex",
    "7624": "ght",
    "7625": "gia",
    "7626": "gid",
    "7627": "gie",
    "7628": "gif",
    "7629": "gil",
    "7630": "gin",
    "7631": "gio",
    "7632": "gis",
    "7633": "git",
    "7634": "gle",
    "7635": "gly",
    "7636": "gmt",
    "7637": "gnu",
    "7638": "god",
    "7639": "gol",
    "7640": "gom",
    "7641": "gon",
    "7642": "gor",
    "7643": "gos",
    "7644": "got",
    "7645": "gov",
    "7646": "gow",
    "7647": "gpu",
    "7648": "gra",
    "7649": "gre",
    "7650": "gro",
    "7651": "grp",
    "7652": "gru",
    "7653": "gte",
    "7654": "gtk",
    "7655": "gua",
    "7656": "gue",
    "7657": "gui",
    "7658": "gun",
    "7659": "gut",
    "7660": "hab",
    "7661": "had",
    "7662": "hai",
    "7663": "hal",
    "7664": "ham",
    "7665": "han",
    "7666": "hao",
    "7667": "hap",
    "7668": "har",
    "7669": "has",
    "7670": "hat",
    "7671": "hav",
    "7672": "haw",
    "7673": "hay",
    "7674": "haz",
    "7675": "hdr",
    "7676": "hea",
    "7677": "hed",
    "7678": "hee",
    "7679": "hei",
    "7680": "hel",
    "7681": "hem",
    "7682": "hen",
    "7683": "hep",
    "7684": "her",
    "7685": "hes",
    "7686": "het",
    "7687": "hev",
    "7688": "hew",
    "7689": "hex",
    "7690": "hey",
    "7691": "hib",
    "7692": "hic",
    "7693": "hid",
    "7694": "hig",
    "7695": "hil",
    "7696": "him",
    "7697": "hin",
    "7698": "hip",
    "7699": "hir",
    "7700": "his",
    "7701": "hit",
    "7702": "hma",
    "7703": "hoc",
    "7704": "hod",
    "7705": "hoe",
    "7706": "hof",
    "7707": "hog",
    "7708": "hol",
    "7709": "hom",
    "7710": "hon",
    "7711": "hop",
    "7712": "hor",
    "7713": "hos",
    "7714": "hot",
    "7715": "hou",
    "7716": "hov",
    "7717": "how",
    "7718": "hpp",
    "7719": "hra",
    "7720": "hta",
    "7721": "hti",
    "7722": "htm",
    "7723": "htt",
    "7724": "hua",
    "7725": "hub",
    "7726": "hue",
    "7727": "hui",
    "7728": "hum",
    "7729": "hur",
    "7730": "hus",
    "7731": "hyd",
    "7732": "hyp",
    "7733": "h\u00e1",
    "7734": "h\u00e3",
    "7735": "h\u00e4",
    "7736": "h\u00e9",
    "7737": "h\u00f6",
    "7738": "iOS",
    "7739": "iac",
    "7740": "iae",
    "7741": "iah",
    "7742": "iak",
    "7743": "ial",
    "7744": "iam",
    "7745": "ian",
    "7746": "iao",
    "7747": "iar",
    "7748": "ias",
    "7749": "iat",
    "7750": "iaz",
    "7751": "iba",
    "7752": "ibe",
    "7753": "ibi",
    "7754": "ibo",
    "7755": "ibr",
    "7756": "ibu",
    "7757": "ica",
    "7758": "icc",
    "7759": "ice",
    "7760": "ich",
    "7761": "ici",
    "7762": "ick",
    "7763": "icl",
    "7764": "ico",
    "7765": "ics",
    "7766": "ict",
    "7767": "icy",
    "7768": "icz",
    "7769": "ida",
    "7770": "idd",
    "7771": "ide",
    "7772": "idi",
    "7773": "idl",
    "7774": "ido",
    "7775": "ids",
    "7776": "idx",
    "7777": "idy",
    "7778": "iec",
    "7779": "ied",
    "7780": "ief",
    "7781": "ieg",
    "7782": "iei",
    "7783": "iej",
    "7784": "iek",
    "7785": "iel",
    "7786": "iem",
    "7787": "ien",
    "7788": "ier",
    "7789": "ies",
    "7790": "iet",
    "7791": "ieu",
    "7792": "iev",
    "7793": "iew",
    "7794": "iez",
    "7795": "ifa",
    "7796": "ife",
    "7797": "iff",
    "7798": "ifi",
    "7799": "ifs",
    "7800": "ift",
    "7801": "ify",
    "7802": "iga",
    "7803": "ige",
    "7804": "igg",
    "7805": "igh",
    "7806": "igi",
    "7807": "igl",
    "7808": "igm",
    "7809": "ign",
    "7810": "igo",
    "7811": "igr",
    "7812": "igs",
    "7813": "igt",
    "7814": "igu",
    "7815": "iii",
    "7816": "ija",
    "7817": "ije",
    "7818": "iji",
    "7819": "ijk",
    "7820": "ijn",
    "7821": "ijo",
    "7822": "iju",
    "7823": "ika",
    "7824": "ike",
    "7825": "ikh",
    "7826": "iki",
    "7827": "ikk",
    "7828": "iko",
    "7829": "iks",
    "7830": "ikt",
    "7831": "iku",
    "7832": "ila",
    "7833": "ild",
    "7834": "ile",
    "7835": "ili",
    "7836": "ilk",
    "7837": "ill",
    "7838": "ilo",
    "7839": "ils",
    "7840": "ilt",
    "7841": "ily",
    "7842": "ima",
    "7843": "imb",
    "7844": "ime",
    "7845": "img",
    "7846": "imi",
    "7847": "imm",
    "7848": "imo",
    "7849": "imp",
    "7850": "ims",
    "7851": "ina",
    "7852": "inc",
    "7853": "ind",
    "7854": "ine",
    "7855": "inf",
    "7856": "ing",
    "7857": "inh",
    "7858": "ini",
    "7859": "inj",
    "7860": "ink",
    "7861": "inn",
    "7862": "ino",
    "7863": "inp",
    "7864": "ins",
    "7865": "int",
    "7866": "inu",
    "7867": "inv",
    "7868": "inx",
    "7869": "iny",
    "7870": "inz",
    "7871": "iod",
    "7872": "iol",
    "7873": "iom",
    "7874": "ion",
    "7875": "iop",
    "7876": "ior",
    "7877": "ios",
    "7878": "iot",
    "7879": "iou",
    "7880": "iov",
    "7881": "iox",
    "7882": "ipa",
    "7883": "ipe",
    "7884": "iph",
    "7885": "ipl",
    "7886": "ipo",
    "7887": "ipp",
    "7888": "ips",
    "7889": "ipt",
    "7890": "ipv",
    "7891": "ipy",
    "7892": "iqu",
    "7893": "ira",
    "7894": "irc",
    "7895": "ird",
    "7896": "ire",
    "7897": "iri",
    "7898": "irk",
    "7899": "irl",
    "7900": "irm",
    "7901": "iro",
    "7902": "irq",
    "7903": "irs",
    "7904": "irt",
    "7905": "iry",
    "7906": "isa",
    "7907": "isc",
    "7908": "isd",
    "7909": "ise",
    "7910": "isf",
    "7911": "ish",
    "7912": "isi",
    "7913": "isk",
    "7914": "isl",
    "7915": "ism",
    "7916": "iso",
    "7917": "isp",
    "7918": "iss",
    "7919": "ist",
    "7920": "isu",
    "7921": "isy",
    "7922": "isz",
    "7923": "ita",
    "7924": "ite",
    "7925": "ith",
    "7926": "iti",
    "7927": "itm",
    "7928": "ito",
    "7929": "itr",
    "7930": "its",
    "7931": "itt",
    "7932": "itu",
    "7933": "ity",
    "7934": "itz",
    "7935": "ium",
    "7936": "ius",
    "7937": "iva",
    "7938": "ive",
    "7939": "ivi",
    "7940": "ivo",
    "7941": "ivy",
    "7942": "ixa",
    "7943": "ixo",
    "7944": "iya",
    "7945": "iza",
    "7946": "ize",
    "7947": "izi",
    "7948": "izo",
    "7949": "izu",
    "7950": "izz",
    "7951": "i\u00df",
    "7952": "i\u00e9",
    "7953": "i\u00eb",
    "7954": "i\u00f3",
    "7955": "i\u0105",
    "7956": "i\u0107",
    "7957": "i\u010d",
    "7958": "i\u0119",
    "7959": "i\u0142",
    "7960": "i\u015f",
    "7961": "i\u0161",
    "7962": "jab",
    "7963": "jac",
    "7964": "jad",
    "7965": "jah",
    "7966": "jak",
    "7967": "jal",
    "7968": "jam",
    "7969": "jan",
    "7970": "jar",
    "7971": "jas",
    "7972": "jav",
    "7973": "jax",
    "7974": "jay",
    "7975": "jdk",
    "7976": "jee",
    "7977": "jel",
    "7978": "jem",
    "7979": "jen",
    "7980": "jer",
    "7981": "jes",
    "7982": "jet",
    "7983": "jid",
    "7984": "jin",
    "7985": "jis",
    "7986": "jit",
    "7987": "job",
    "7988": "jon",
    "7989": "jor",
    "7990": "jos",
    "7991": "jou",
    "7992": "joy",
    "7993": "jpg",
    "7994": "jsp",
    "7995": "jud",
    "7996": "jug",
    "7997": "jul",
    "7998": "jun",
    "7999": "jur",
    "8000": "j\u00e0",
    "8001": "j\u00e4",
    "8002": "j\u00f6",
    "8003": "j\u00f8",
    "8004": "j\u0105",
    "8005": "j\u0119",
    "8006": "kal",
    "8007": "kan",
    "8008": "kap",
    "8009": "kar",
    "8010": "kas",
    "8011": "kat",
    "8012": "ked",
    "8013": "kee",
    "8014": "keh",
    "8015": "kel",
    "8016": "ken",
    "8017": "ker",
    "8018": "kes",
    "8019": "ket",
    "8020": "key",
    "8021": "kid",
    "8022": "kie",
    "8023": "kil",
    "8024": "kim",
    "8025": "kin",
    "8026": "kip",
    "8027": "kir",
    "8028": "kit",
    "8029": "kle",
    "8030": "kok",
    "8031": "kol",
    "8032": "kom",
    "8033": "kon",
    "8034": "kop",
    "8035": "kor",
    "8036": "kos",
    "8037": "kov",
    "8038": "kow",
    "8039": "ksi",
    "8040": "kte",
    "8041": "kun",
    "8042": "kur",
    "8043": "kus",
    "8044": "k\u00e1",
    "8045": "k\u00e4",
    "8046": "k\u00e9",
    "8047": "k\u00f6",
    "8048": "k\u0105",
    "8049": "k\u0119",
    "8050": "lab",
    "8051": "lac",
    "8052": "lad",
    "8053": "lag",
    "8054": "lah",
    "8055": "lam",
    "8056": "lan",
    "8057": "lap",
    "8058": "lar",
    "8059": "las",
    "8060": "lat",
    "8061": "lav",
    "8062": "law",
    "8063": "lay",
    "8064": "lbl",
    "8065": "lea",
    "8066": "lec",
    "8067": "led",
    "8068": "lee",
    "8069": "lef",
    "8070": "leg",
    "8071": "lei",
    "8072": "lek",
    "8073": "lem",
    "8074": "len",
    "8075": "lep",
    "8076": "leq",
    "8077": "ler",
    "8078": "les",
    "8079": "let",
    "8080": "lev",
    "8081": "lew",
    "8082": "lex",
    "8083": "ley",
    "8084": "lez",
    "8085": "lia",
    "8086": "lib",
    "8087": "lic",
    "8088": "lid",
    "8089": "lie",
    "8090": "lif",
    "8091": "lig",
    "8092": "lij",
    "8093": "lik",
    "8094": "lim",
    "8095": "lin",
    "8096": "lio",
    "8097": "lip",
    "8098": "lis",
    "8099": "lit",
    "8100": "liv",
    "8101": "lla",
    "8102": "lle",
    "8103": "lli",
    "8104": "llo",
    "8105": "lng",
    "8106": "lob",
    "8107": "loc",
    "8108": "lod",
    "8109": "loe",
    "8110": "log",
    "8111": "lon",
    "8112": "loo",
    "8113": "lop",
    "8114": "lor",
    "8115": "los",
    "8116": "lot",
    "8117": "lou",
    "8118": "lov",
    "8119": "low",
    "8120": "loy",
    "8121": "lst",
    "8122": "lua",
    "8123": "luc",
    "8124": "lum",
    "8125": "lun",
    "8126": "lus",
    "8127": "lut",
    "8128": "lux",
    "8129": "lvl",
    "8130": "lyn",
    "8131": "lys",
    "8132": "l\u00e0",
    "8133": "l\u00e1",
    "8134": "l\u00e4",
    "8135": "l\u00e9",
    "8136": "l\u00f3",
    "8137": "l\u00f6",
    "8138": "l\u0105",
    "8139": "l\u0131",
    "8140": "mAh",
    "8141": "mac",
    "8142": "mad",
    "8143": "mag",
    "8144": "mai",
    "8145": "maj",
    "8146": "mak",
    "8147": "mal",
    "8148": "man",
    "8149": "map",
    "8150": "mar",
    "8151": "mas",
    "8152": "mat",
    "8153": "max",
    "8154": "may",
    "8155": "maz",
    "8156": "mbH",
    "8157": "med",
    "8158": "meg",
    "8159": "mek",
    "8160": "mel",
    "8161": "mem",
    "8162": "men",
    "8163": "mer",
    "8164": "mes",
    "8165": "met",
    "8166": "mez",
    "8167": "mgr",
    "8168": "mia",
    "8169": "mic",
    "8170": "mid",
    "8171": "mie",
    "8172": "mil",
    "8173": "mim",
    "8174": "min",
    "8175": "mir",
    "8176": "mis",
    "8177": "mit",
    "8178": "mix",
    "8179": "mma",
    "8180": "mmm",
    "8181": "mob",
    "8182": "mod",
    "8183": "mol",
    "8184": "mom",
    "8185": "mon",
    "8186": "mor",
    "8187": "mos",
    "8188": "mot",
    "8189": "mov",
    "8190": "moz",
    "8191": "mph",
    "8192": "mpi",
    "8193": "mpl",
    "8194": "mse",
    "8195": "msg",
    "8196": "mud",
    "8197": "mul",
    "8198": "mun",
    "8199": "mur",
    "8200": "mus",
    "8201": "mut",
    "8202": "mux",
    "8203": "mys",
    "8204": "m\u00e9",
    "8205": "nad",
    "8206": "nah",
    "8207": "nai",
    "8208": "nak",
    "8209": "nal",
    "8210": "nam",
    "8211": "nan",
    "8212": "nap",
    "8213": "nar",
    "8214": "nas",
    "8215": "nat",
    "8216": "nav",
    "8217": "nbr",
    "8218": "nce",
    "8219": "nda",
    "8220": "nds",
    "8221": "nea",
    "8222": "ned",
    "8223": "nee",
    "8224": "neg",
    "8225": "neh",
    "8226": "nej",
    "8227": "nek",
    "8228": "nel",
    "8229": "nem",
    "8230": "nen",
    "8231": "neo",
    "8232": "neq",
    "8233": "ner",
    "8234": "nes",
    "8235": "net",
    "8236": "neu",
    "8237": "new",
    "8238": "nex",
    "8239": "ney",
    "8240": "nez",
    "8241": "nia",
    "8242": "nic",
    "8243": "nie",
    "8244": "nih",
    "8245": "nik",
    "8246": "nil",
    "8247": "nim",
    "8248": "nin",
    "8249": "nio",
    "8250": "nis",
    "8251": "nit",
    "8252": "nob",
    "8253": "noc",
    "8254": "nod",
    "8255": "nom",
    "8256": "non",
    "8257": "nop",
    "8258": "nor",
    "8259": "nos",
    "8260": "not",
    "8261": "nou",
    "8262": "nov",
    "8263": "now",
    "8264": "nox",
    "8265": "npc",
    "8266": "npm",
    "8267": "npy",
    "8268": "nth",
    "8269": "num",
    "8270": "nut",
    "8271": "nya",
    "8272": "n\u00e1",
    "8273": "n\u00e9",
    "8274": "n\u00ed",
    "8275": "n\u00fd",
    "8276": "n\u0105",
    "8277": "n\u0119",
    "8278": "n\u011b",
    "8279": "oad",
    "8280": "oba",
    "8281": "obb",
    "8282": "obe",
    "8283": "obi",
    "8284": "obj",
    "8285": "obl",
    "8286": "obo",
    "8287": "obs",
    "8288": "oby",
    "8289": "oca",
    "8290": "occ",
    "8291": "oce",
    "8292": "och",
    "8293": "oci",
    "8294": "ock",
    "8295": "ocl",
    "8296": "oco",
    "8297": "ocr",
    "8298": "ocs",
    "8299": "oct",
    "8300": "ocy",
    "8301": "oda",
    "8302": "odb",
    "8303": "odd",
    "8304": "ode",
    "8305": "odi",
    "8306": "odo",
    "8307": "ods",
    "8308": "ody",
    "8309": "oen",
    "8310": "oes",
    "8311": "off",
    "8312": "ofs",
    "8313": "oft",
    "8314": "oga",
    "8315": "oge",
    "8316": "ogg",
    "8317": "ogh",
    "8318": "ogi",
    "8319": "ogl",
    "8320": "ogn",
    "8321": "ogo",
    "8322": "ogr",
    "8323": "ogs",
    "8324": "ogy",
    "8325": "ohl",
    "8326": "ohn",
    "8327": "oho",
    "8328": "oid",
    "8329": "oil",
    "8330": "oin",
    "8331": "oir",
    "8332": "ois",
    "8333": "oit",
    "8334": "oka",
    "8335": "oke",
    "8336": "oki",
    "8337": "oko",
    "8338": "oks",
    "8339": "oku",
    "8340": "oky",
    "8341": "ola",
    "8342": "old",
    "8343": "ole",
    "8344": "olf",
    "8345": "oli",
    "8346": "olk",
    "8347": "oll",
    "8348": "oln",
    "8349": "olo",
    "8350": "ols",
    "8351": "olt",
    "8352": "olu",
    "8353": "oly",
    "8354": "oma",
    "8355": "omb",
    "8356": "ome",
    "8357": "omi",
    "8358": "omm",
    "8359": "omo",
    "8360": "omp",
    "8361": "oms",
    "8362": "omy",
    "8363": "ona",
    "8364": "onc",
    "8365": "ond",
    "8366": "one",
    "8367": "ong",
    "8368": "oni",
    "8369": "onn",
    "8370": "ono",
    "8371": "ons",
    "8372": "ont",
    "8373": "ony",
    "8374": "onz",
    "8375": "ood",
    "8376": "ook",
    "8377": "ool",
    "8378": "oom",
    "8379": "oon",
    "8380": "ooo",
    "8381": "oop",
    "8382": "oor",
    "8383": "oot",
    "8384": "opa",
    "8385": "ope",
    "8386": "opf",
    "8387": "oph",
    "8388": "opi",
    "8389": "opl",
    "8390": "opo",
    "8391": "opp",
    "8392": "ops",
    "8393": "opt",
    "8394": "opy",
    "8395": "ora",
    "8396": "orb",
    "8397": "orc",
    "8398": "ord",
    "8399": "ore",
    "8400": "orf",
    "8401": "org",
    "8402": "ori",
    "8403": "ork",
    "8404": "orm",
    "8405": "orn",
    "8406": "oro",
    "8407": "orp",
    "8408": "orr",
    "8409": "ors",
    "8410": "ort",
    "8411": "oru",
    "8412": "ory",
    "8413": "osa",
    "8414": "osc",
    "8415": "ose",
    "8416": "osh",
    "8417": "osi",
    "8418": "oso",
    "8419": "osp",
    "8420": "oss",
    "8421": "ost",
    "8422": "ota",
    "8423": "ote",
    "8424": "oth",
    "8425": "oti",
    "8426": "oto",
    "8427": "ots",
    "8428": "ott",
    "8429": "oty",
    "8430": "oub",
    "8431": "oud",
    "8432": "oug",
    "8433": "oui",
    "8434": "ouk",
    "8435": "oul",
    "8436": "oun",
    "8437": "oup",
    "8438": "our",
    "8439": "ous",
    "8440": "out",
    "8441": "ouv",
    "8442": "oux",
    "8443": "ova",
    "8444": "ove",
    "8445": "ovi",
    "8446": "ovo",
    "8447": "ovy",
    "8448": "owa",
    "8449": "owe",
    "8450": "owi",
    "8451": "owl",
    "8452": "own",
    "8453": "owo",
    "8454": "ows",
    "8455": "owy",
    "8456": "oxy",
    "8457": "oya",
    "8458": "oyo",
    "8459": "ozo",
    "8460": "ozy",
    "8461": "o\u0142",
    "8462": "pac",
    "8463": "pad",
    "8464": "pag",
    "8465": "pak",
    "8466": "pal",
    "8467": "pan",
    "8468": "pap",
    "8469": "par",
    "8470": "pas",
    "8471": "pat",
    "8472": "pay",
    "8473": "pci",
    "8474": "pdb",
    "8475": "pdf",
    "8476": "pec",
    "8477": "ped",
    "8478": "pee",
    "8479": "peg",
    "8480": "pei",
    "8481": "pel",
    "8482": "pem",
    "8483": "pen",
    "8484": "per",
    "8485": "pes",
    "8486": "pet",
    "8487": "pex",
    "8488": "pez",
    "8489": "pha",
    "8490": "phe",
    "8491": "phi",
    "8492": "php",
    "8493": "phy",
    "8494": "pic",
    "8495": "pid",
    "8496": "pie",
    "8497": "pig",
    "8498": "pin",
    "8499": "pio",
    "8500": "pip",
    "8501": "pir",
    "8502": "pis",
    "8503": "pit",
    "8504": "pix",
    "8505": "pkg",
    "8506": "pkl",
    "8507": "pla",
    "8508": "ple",
    "8509": "plt",
    "8510": "ply",
    "8511": "png",
    "8512": "pod",
    "8513": "pol",
    "8514": "pom",
    "8515": "pon",
    "8516": "pop",
    "8517": "por",
    "8518": "pos",
    "8519": "pot",
    "8520": "pow",
    "8521": "ppa",
    "8522": "ppe",
    "8523": "ppo",
    "8524": "pps",
    "8525": "ppy",
    "8526": "pra",
    "8527": "pre",
    "8528": "pri",
    "8529": "pro",
    "8530": "psi",
    "8531": "psy",
    "8532": "pta",
    "8533": "pte",
    "8534": "pth",
    "8535": "pto",
    "8536": "ptr",
    "8537": "pts",
    "8538": "pty",
    "8539": "pub",
    "8540": "pul",
    "8541": "pun",
    "8542": "pur",
    "8543": "pus",
    "8544": "put",
    "8545": "pwd",
    "8546": "qrt",
    "8547": "qty",
    "8548": "qua",
    "8549": "que",
    "8550": "qui",
    "8551": "quo",
    "8552": "rab",
    "8553": "rac",
    "8554": "rad",
    "8555": "rae",
    "8556": "raf",
    "8557": "rag",
    "8558": "rah",
    "8559": "rai",
    "8560": "raj",
    "8561": "rak",
    "8562": "ral",
    "8563": "ram",
    "8564": "ran",
    "8565": "rap",
    "8566": "raq",
    "8567": "rar",
    "8568": "ras",
    "8569": "rat",
    "8570": "rav",
    "8571": "raw",
    "8572": "rax",
    "8573": "ray",
    "8574": "raz",
    "8575": "rdf",
    "8576": "rea",
    "8577": "reb",
    "8578": "rec",
    "8579": "red",
    "8580": "ree",
    "8581": "ref",
    "8582": "reg",
    "8583": "reh",
    "8584": "rei",
    "8585": "rek",
    "8586": "rel",
    "8587": "rem",
    "8588": "ren",
    "8589": "reo",
    "8590": "rep",
    "8591": "req",
    "8592": "rer",
    "8593": "res",
    "8594": "ret",
    "8595": "reu",
    "8596": "rev",
    "8597": "rew",
    "8598": "rex",
    "8599": "rey",
    "8600": "rez",
    "8601": "rgb",
    "8602": "rho",
    "8603": "rhs",
    "8604": "ria",
    "8605": "rib",
    "8606": "ric",
    "8607": "rid",
    "8608": "rie",
    "8609": "rif",
    "8610": "rig",
    "8611": "rij",
    "8612": "rik",
    "8613": "ril",
    "8614": "rim",
    "8615": "rin",
    "8616": "rio",
    "8617": "rip",
    "8618": "rir",
    "8619": "ris",
    "8620": "rit",
    "8621": "riv",
    "8622": "rix",
    "8623": "riz",
    "8624": "rms",
    "8625": "rna",
    "8626": "rnd",
    "8627": "rng",
    "8628": "rnn",
    "8629": "rob",
    "8630": "roc",
    "8631": "rod",
    "8632": "roe",
    "8633": "rog",
    "8634": "roi",
    "8635": "rok",
    "8636": "rol",
    "8637": "rom",
    "8638": "ron",
    "8639": "rop",
    "8640": "ror",
    "8641": "ros",
    "8642": "rot",
    "8643": "rou",
    "8644": "rov",
    "8645": "row",
    "8646": "rox",
    "8647": "roy",
    "8648": "roz",
    "8649": "rpc",
    "8650": "rpm",
    "8651": "rsa",
    "8652": "rsp",
    "8653": "rss",
    "8654": "rst",
    "8655": "rtl",
    "8656": "rub",
    "8657": "rud",
    "8658": "rue",
    "8659": "rug",
    "8660": "rum",
    "8661": "run",
    "8662": "rup",
    "8663": "rus",
    "8664": "rut",
    "8665": "ryn",
    "8666": "rys",
    "8667": "r\u00e0",
    "8668": "r\u00e1",
    "8669": "r\u00e4",
    "8670": "r\u00e5",
    "8671": "r\u00e9",
    "8672": "r\u00ed",
    "8673": "r\u00f3",
    "8674": "r\u0119",
    "8675": "sac",
    "8676": "sad",
    "8677": "saf",
    "8678": "sal",
    "8679": "sam",
    "8680": "san",
    "8681": "sar",
    "8682": "sas",
    "8683": "sat",
    "8684": "sav",
    "8685": "saw",
    "8686": "say",
    "8687": "sce",
    "8688": "sch",
    "8689": "sci",
    "8690": "scr",
    "8691": "sdk",
    "8692": "sea",
    "8693": "sec",
    "8694": "sed",
    "8695": "see",
    "8696": "seg",
    "8697": "sei",
    "8698": "sek",
    "8699": "sel",
    "8700": "sem",
    "8701": "sen",
    "8702": "sep",
    "8703": "seq",
    "8704": "ser",
    "8705": "ses",
    "8706": "set",
    "8707": "sex",
    "8708": "sey",
    "8709": "sez",
    "8710": "sha",
    "8711": "she",
    "8712": "shi",
    "8713": "shr",
    "8714": "sic",
    "8715": "sid",
    "8716": "sie",
    "8717": "sig",
    "8718": "sil",
    "8719": "sim",
    "8720": "sin",
    "8721": "sis",
    "8722": "sit",
    "8723": "six",
    "8724": "ska",
    "8725": "ske",
    "8726": "ski",
    "8727": "sku",
    "8728": "sky",
    "8729": "snd",
    "8730": "soc",
    "8731": "sof",
    "8732": "sol",
    "8733": "som",
    "8734": "son",
    "8735": "sor",
    "8736": "sov",
    "8737": "spe",
    "8738": "spi",
    "8739": "spl",
    "8740": "spo",
    "8741": "spr",
    "8742": "spy",
    "8743": "sql",
    "8744": "squ",
    "8745": "src",
    "8746": "ssa",
    "8747": "ssh",
    "8748": "ssl",
    "8749": "sta",
    "8750": "std",
    "8751": "ste",
    "8752": "sth",
    "8753": "sti",
    "8754": "stm",
    "8755": "sto",
    "8756": "str",
    "8757": "sts",
    "8758": "stu",
    "8759": "sty",
    "8760": "sub",
    "8761": "suc",
    "8762": "sum",
    "8763": "sun",
    "8764": "sup",
    "8765": "sur",
    "8766": "sus",
    "8767": "svg",
    "8768": "svn",
    "8769": "swe",
    "8770": "sym",
    "8771": "syn",
    "8772": "sys",
    "8773": "tab",
    "8774": "tag",
    "8775": "tah",
    "8776": "tal",
    "8777": "tam",
    "8778": "tan",
    "8779": "tap",
    "8780": "tar",
    "8781": "tas",
    "8782": "tat",
    "8783": "tau",
    "8784": "tax",
    "8785": "tbl",
    "8786": "tcp",
    "8787": "tea",
    "8788": "tec",
    "8789": "ted",
    "8790": "tee",
    "8791": "tek",
    "8792": "tel",
    "8793": "tem",
    "8794": "ten",
    "8795": "ter",
    "8796": "tes",
    "8797": "tet",
    "8798": "tex",
    "8799": "tgt",
    "8800": "tha",
    "8801": "the",
    "8802": "thi",
    "8803": "thm",
    "8804": "thr",
    "8805": "ths",
    "8806": "thy",
    "8807": "tic",
    "8808": "tid",
    "8809": "tie",
    "8810": "tif",
    "8811": "tig",
    "8812": "tik",
    "8813": "til",
    "8814": "tim",
    "8815": "tin",
    "8816": "tip",
    "8817": "tis",
    "8818": "tit",
    "8819": "tle",
    "8820": "tls",
    "8821": "tml",
    "8822": "tmp",
    "8823": "toc",
    "8824": "tod",
    "8825": "tok",
    "8826": "tol",
    "8827": "tom",
    "8828": "ton",
    "8829": "too",
    "8830": "top",
    "8831": "tor",
    "8832": "tos",
    "8833": "tot",
    "8834": "tow",
    "8835": "tpl",
    "8836": "tra",
    "8837": "tre",
    "8838": "tri",
    "8839": "trl",
    "8840": "tro",
    "8841": "tru",
    "8842": "try",
    "8843": "tte",
    "8844": "tti",
    "8845": "ttl",
    "8846": "ttp",
    "8847": "tty",
    "8848": "tum",
    "8849": "tun",
    "8850": "tur",
    "8851": "two",
    "8852": "txt",
    "8853": "typ",
    "8854": "t\u00e9",
    "8855": "t\u00f3",
    "8856": "ual",
    "8857": "uan",
    "8858": "uar",
    "8859": "uba",
    "8860": "ubb",
    "8861": "ube",
    "8862": "ubi",
    "8863": "ubl",
    "8864": "ubs",
    "8865": "uby",
    "8866": "uca",
    "8867": "ucc",
    "8868": "uce",
    "8869": "uch",
    "8870": "uci",
    "8871": "uck",
    "8872": "uct",
    "8873": "uda",
    "8874": "udd",
    "8875": "ude",
    "8876": "udi",
    "8877": "udo",
    "8878": "uds",
    "8879": "ued",
    "8880": "uel",
    "8881": "uen",
    "8882": "uer",
    "8883": "ues",
    "8884": "uet",
    "8885": "uez",
    "8886": "ufe",
    "8887": "uff",
    "8888": "uga",
    "8889": "uge",
    "8890": "ugg",
    "8891": "ugh",
    "8892": "ugi",
    "8893": "ugo",
    "8894": "ugs",
    "8895": "ugu",
    "8896": "uid",
    "8897": "uil",
    "8898": "uin",
    "8899": "uir",
    "8900": "uis",
    "8901": "uit",
    "8902": "uje",
    "8903": "uka",
    "8904": "uke",
    "8905": "uki",
    "8906": "uko",
    "8907": "uks",
    "8908": "uku",
    "8909": "ula",
    "8910": "uld",
    "8911": "ule",
    "8912": "ulf",
    "8913": "uli",
    "8914": "ulk",
    "8915": "ull",
    "8916": "ulo",
    "8917": "ulp",
    "8918": "uls",
    "8919": "ult",
    "8920": "ulu",
    "8921": "uly",
    "8922": "uma",
    "8923": "umb",
    "8924": "ume",
    "8925": "umi",
    "8926": "uml",
    "8927": "umm",
    "8928": "umn",
    "8929": "umo",
    "8930": "ump",
    "8931": "ums",
    "8932": "umu",
    "8933": "una",
    "8934": "unc",
    "8935": "und",
    "8936": "une",
    "8937": "ung",
    "8938": "uni",
    "8939": "unj",
    "8940": "unk",
    "8941": "unn",
    "8942": "uno",
    "8943": "uns",
    "8944": "unt",
    "8945": "upa",
    "8946": "upe",
    "8947": "upo",
    "8948": "upp",
    "8949": "ups",
    "8950": "upt",
    "8951": "ura",
    "8952": "urb",
    "8953": "urd",
    "8954": "ure",
    "8955": "urf",
    "8956": "urg",
    "8957": "uri",
    "8958": "urk",
    "8959": "url",
    "8960": "urm",
    "8961": "urn",
    "8962": "uro",
    "8963": "urr",
    "8964": "urs",
    "8965": "urt",
    "8966": "uru",
    "8967": "ury",
    "8968": "usa",
    "8969": "usb",
    "8970": "usc",
    "8971": "use",
    "8972": "ush",
    "8973": "usi",
    "8974": "usk",
    "8975": "uso",
    "8976": "usp",
    "8977": "usr",
    "8978": "uss",
    "8979": "ust",
    "8980": "usu",
    "8981": "usz",
    "8982": "uta",
    "8983": "utc",
    "8984": "ute",
    "8985": "utf",
    "8986": "uth",
    "8987": "uti",
    "8988": "utm",
    "8989": "uto",
    "8990": "uts",
    "8991": "utt",
    "8992": "uty",
    "8993": "utz",
    "8994": "uum",
    "8995": "uve",
    "8996": "uvo",
    "8997": "uxe",
    "8998": "uya",
    "8999": "uzz",
    "9000": "u\u00df",
    "9001": "u\u00e9",
    "9002": "u\u00ed",
    "9003": "u\u017e",
    "9004": "vac",
    "9005": "vae",
    "9006": "val",
    "9007": "van",
    "9008": "var",
    "9009": "vas",
    "9010": "vat",
    "9011": "vec",
    "9012": "ved",
    "9013": "vee",
    "9014": "veg",
    "9015": "veh",
    "9016": "vel",
    "9017": "ven",
    "9018": "ver",
    "9019": "ves",
    "9020": "vet",
    "9021": "vex",
    "9022": "vey",
    "9023": "vez",
    "9024": "via",
    "9025": "vic",
    "9026": "vid",
    "9027": "vie",
    "9028": "vig",
    "9029": "vii",
    "9030": "vik",
    "9031": "vil",
    "9032": "vim",
    "9033": "vin",
    "9034": "vio",
    "9035": "vip",
    "9036": "vir",
    "9037": "vis",
    "9038": "vit",
    "9039": "viv",
    "9040": "viz",
    "9041": "voc",
    "9042": "vod",
    "9043": "vol",
    "9044": "von",
    "9045": "vor",
    "9046": "vos",
    "9047": "vox",
    "9048": "voy",
    "9049": "vre",
    "9050": "vue",
    "9051": "v\u00e1",
    "9052": "v\u00e4",
    "9053": "v\u00e9",
    "9054": "v\u00ed",
    "9055": "v\u011b",
    "9056": "wal",
    "9057": "wan",
    "9058": "wap",
    "9059": "war",
    "9060": "was",
    "9061": "wat",
    "9062": "wav",
    "9063": "way",
    "9064": "web",
    "9065": "wed",
    "9066": "weg",
    "9067": "wei",
    "9068": "wel",
    "9069": "wen",
    "9070": "wer",
    "9071": "wet",
    "9072": "whe",
    "9073": "who",
    "9074": "why",
    "9075": "wid",
    "9076": "wie",
    "9077": "wig",
    "9078": "wik",
    "9079": "wil",
    "9080": "win",
    "9081": "wis",
    "9082": "wit",
    "9083": "wol",
    "9084": "won",
    "9085": "wor",
    "9086": "www",
    "9087": "wyn",
    "9088": "xFF",
    "9089": "xcb",
    "9090": "xed",
    "9091": "xes",
    "9092": "xfe",
    "9093": "xff",
    "9094": "xhr",
    "9095": "xia",
    "9096": "xic",
    "9097": "xim",
    "9098": "xin",
    "9099": "xis",
    "9100": "xit",
    "9101": "xiv",
    "9102": "xls",
    "9103": "xml",
    "9104": "xon",
    "9105": "xor",
    "9106": "xsd",
    "9107": "xsl",
    "9108": "xxx",
    "9109": "xyz",
    "9110": "yah",
    "9111": "yal",
    "9112": "yam",
    "9113": "yan",
    "9114": "yar",
    "9115": "yaw",
    "9116": "ych",
    "9117": "ycl",
    "9118": "yel",
    "9119": "yen",
    "9120": "yer",
    "9121": "yes",
    "9122": "yet",
    "9123": "yla",
    "9124": "yle",
    "9125": "yll",
    "9126": "yme",
    "9127": "yml",
    "9128": "yna",
    "9129": "ync",
    "9130": "yne",
    "9131": "ynn",
    "9132": "ynt",
    "9133": "yon",
    "9134": "yor",
    "9135": "you",
    "9136": "ype",
    "9137": "yre",
    "9138": "ysi",
    "9139": "yst",
    "9140": "ysz",
    "9141": "yth",
    "9142": "yun",
    "9143": "yyy",
    "9144": "y\u00f3",
    "9145": "zag",
    "9146": "zak",
    "9147": "zan",
    "9148": "zar",
    "9149": "zas",
    "9150": "zed",
    "9151": "zee",
    "9152": "zej",
    "9153": "zek",
    "9154": "zel",
    "9155": "zem",
    "9156": "zen",
    "9157": "zer",
    "9158": "zes",
    "9159": "zet",
    "9160": "zew",
    "9161": "zia",
    "9162": "zie",
    "9163": "zig",
    "9164": "zik",
    "9165": "zin",
    "9166": "zip",
    "9167": "zon",
    "9168": "zor",
    "9169": "zos",
    "9170": "zyk",
    "9171": "zym",
    "9172": "zza",
    "9173": "zzi",
    "9174": "zzo",
    "9175": "z\u00e1",
    "9176": "z\u00f3",
    "9177": "z\u0105",
    "9178": "z\u0119",
    "9179": "z\u0151",
    "9180": "{{\\",
    "9181": "{})",
    "9182": "{},",
    "9183": "{}.",
    "9184": "{}\\",
    "9185": "{}_",
    "9186": "}\")",
    "9187": "}\",",
    "9188": "}$$",
    "9189": "}')",
    "9190": "}',",
    "9191": "}))",
    "9192": "}),",
    "9193": "}).",
    "9194": "});",
    "9195": "})\\",
    "9196": "},\"",
    "9197": "},{",
    "9198": "}.{",
    "9199": "}/{",
    "9200": "}:{",
    "9201": "}</",
    "9202": "}=\\",
    "9203": "}\\\\",
    "9204": "}^{",
    "9205": "}_{",
    "9206": "}{\\",
    "9207": "}}\"",
    "9208": "}}$",
    "9209": "}})",
    "9210": "}},",
    "9211": "}}=",
    "9212": "}}\\",
    "9213": "}}{",
    "9214": "}}}",
    "9215": "~~~",
    "9216": "\u00ae,",
    "9217": "\u00b0,",
    "9218": "\u00b0C",
    "9219": "\u00b0F",
    "9220": "\u00b2,",
    "9221": "\u00b2.",
    "9222": "\u00b4s",
    "9223": "\u00bb)",
    "9224": "\u00bb,",
    "9225": "\u00bb.",
    "9226": "\u00c3O",
    "9227": "\u00c9t",
    "9228": "\u00d3N",
    "9229": "\u00dfe",
    "9230": "\u00e0i",
    "9231": "\u00e0n",
    "9232": "\u00e0o",
    "9233": "\u00e0t",
    "9234": "\u00e0y",
    "9235": "\u00e1b",
    "9236": "\u00e1c",
    "9237": "\u00e1d",
    "9238": "\u00e1f",
    "9239": "\u00e1g",
    "9240": "\u00e1i",
    "9241": "\u00e1j",
    "9242": "\u00e1k",
    "9243": "\u00e1l",
    "9244": "\u00e1m",
    "9245": "\u00e1n",
    "9246": "\u00e1o",
    "9247": "\u00e1p",
    "9248": "\u00e1r",
    "9249": "\u00e1s",
    "9250": "\u00e1t",
    "9251": "\u00e1v",
    "9252": "\u00e1z",
    "9253": "\u00e2m",
    "9254": "\u00e2n",
    "9255": "\u00e2r",
    "9256": "\u00e2t",
    "9257": "\u00e2u",
    "9258": "\u00e2y",
    "9259": "\u00e3o",
    "9260": "\u00e4d",
    "9261": "\u00e4g",
    "9262": "\u00e4h",
    "9263": "\u00e4l",
    "9264": "\u00e4m",
    "9265": "\u00e4n",
    "9266": "\u00e4r",
    "9267": "\u00e4s",
    "9268": "\u00e4t",
    "9269": "\u00e4u",
    "9270": "\u00e5k",
    "9271": "\u00e5l",
    "9272": "\u00e5n",
    "9273": "\u00e5r",
    "9274": "\u00e6k",
    "9275": "\u00e6n",
    "9276": "\u00e6r",
    "9277": "\u00e6s",
    "9278": "\u00e7a",
    "9279": "\u00e7o",
    "9280": "\u00e7u",
    "9281": "\u00e8g",
    "9282": "\u00e8n",
    "9283": "\u00e8s",
    "9284": "\u00e8t",
    "9285": "\u00e9b",
    "9286": "\u00e9c",
    "9287": "\u00e9d",
    "9288": "\u00e9e",
    "9289": "\u00e9f",
    "9290": "\u00e9g",
    "9291": "\u00e9k",
    "9292": "\u00e9l",
    "9293": "\u00e9m",
    "9294": "\u00e9n",
    "9295": "\u00e9o",
    "9296": "\u00e9p",
    "9297": "\u00e9r",
    "9298": "\u00e9s",
    "9299": "\u00e9t",
    "9300": "\u00e9v",
    "9301": "\u00eam",
    "9302": "\u00ean",
    "9303": "\u00eas",
    "9304": "\u00eat",
    "9305": "\u00eau",
    "9306": "\u00ebl",
    "9307": "\u00ebn",
    "9308": "\u00ebr",
    "9309": "\u00ebs",
    "9310": "\u00ebt",
    "9311": "\u00eda",
    "9312": "\u00edc",
    "9313": "\u00edd",
    "9314": "\u00edf",
    "9315": "\u00edg",
    "9316": "\u00edk",
    "9317": "\u00edl",
    "9318": "\u00edm",
    "9319": "\u00edn",
    "9320": "\u00edo",
    "9321": "\u00edp",
    "9322": "\u00edr",
    "9323": "\u00eds",
    "9324": "\u00edt",
    "9325": "\u00edv",
    "9326": "\u00edz",
    "9327": "\u00een",
    "9328": "\u00eet",
    "9329": "\u00f1a",
    "9330": "\u00f1o",
    "9331": "\u00f2n",
    "9332": "\u00f3a",
    "9333": "\u00f3b",
    "9334": "\u00f3d",
    "9335": "\u00f3g",
    "9336": "\u00f3j",
    "9337": "\u00f3k",
    "9338": "\u00f3l",
    "9339": "\u00f3m",
    "9340": "\u00f3n",
    "9341": "\u00f3p",
    "9342": "\u00f3r",
    "9343": "\u00f3s",
    "9344": "\u00f3t",
    "9345": "\u00f3w",
    "9346": "\u00f4i",
    "9347": "\u00f4m",
    "9348": "\u00f4n",
    "9349": "\u00f4t",
    "9350": "\u00f6d",
    "9351": "\u00f6g",
    "9352": "\u00f6h",
    "9353": "\u00f6k",
    "9354": "\u00f6l",
    "9355": "\u00f6m",
    "9356": "\u00f6n",
    "9357": "\u00f6r",
    "9358": "\u00f6s",
    "9359": "\u00f6t",
    "9360": "\u00f6v",
    "9361": "\u00f6z",
    "9362": "\u00f8d",
    "9363": "\u00f8j",
    "9364": "\u00f8r",
    "9365": "\u00f8y",
    "9366": "\u00faa",
    "9367": "\u00fab",
    "9368": "\u00fac",
    "9369": "\u00fal",
    "9370": "\u00fan",
    "9371": "\u00fas",
    "9372": "\u00fat",
    "9373": "\u00fbt",
    "9374": "\u00fcb",
    "9375": "\u00fcd",
    "9376": "\u00fcg",
    "9377": "\u00fch",
    "9378": "\u00fck",
    "9379": "\u00fcl",
    "9380": "\u00fcm",
    "9381": "\u00fcn",
    "9382": "\u00fcr",
    "9383": "\u00fcs",
    "9384": "\u00fct",
    "9385": "\u00fcz",
    "9386": "\u00fdm",
    "9387": "\u00fdt",
    "9388": "\u0101d",
    "9389": "\u0101k",
    "9390": "\u0101m",
    "9391": "\u0101n",
    "9392": "\u0101r",
    "9393": "\u0101s",
    "9394": "\u0101t",
    "9395": "\u0103m",
    "9396": "\u0103n",
    "9397": "\u0103r",
    "9398": "\u0103t",
    "9399": "\u0105c",
    "9400": "\u0105d",
    "9401": "\u0105g",
    "9402": "\u0105z",
    "9403": "\u0107e",
    "9404": "\u0107i",
    "9405": "\u010de",
    "9406": "\u010di",
    "9407": "\u0113r",
    "9408": "\u0113t",
    "9409": "\u0119d",
    "9410": "\u0119k",
    "9411": "\u0119p",
    "9412": "\u011bl",
    "9413": "\u011bt",
    "9414": "\u011fi",
    "9415": "\u012bt",
    "9416": "\u0131k",
    "9417": "\u0131l",
    "9418": "\u0131m",
    "9419": "\u0131n",
    "9420": "\u0131r",
    "9421": "\u0131s",
    "9422": "\u0131z",
    "9423": "\u0142a",
    "9424": "\u0142e",
    "9425": "\u0142o",
    "9426": "\u0142u",
    "9427": "\u0142y",
    "9428": "\u0151d",
    "9429": "\u0151k",
    "9430": "\u0151l",
    "9431": "\u0151s",
    "9432": "\u0159e",
    "9433": "\u0159i",
    "9434": "\u015bc",
    "9435": "\u015ft",
    "9436": "\u0161a",
    "9437": "\u0161e",
    "9438": "\u0161i",
    "9439": "\u0161t",
    "9440": "\u0163i",
    "9441": "\u016fm",
    "9442": "\u017ce",
    "9443": "\u017cs",
    "9444": "\u017cy",
    "9445": "\u017ee",
    "9446": "\u01a1i",
    "9447": "\u01a1n",
    "9448": "\u01b0a",
    "9449": "\u0219i",
    "9450": "\u021ba",
    "9451": "\u021bi",
    "9452": "\u03baB",
    "9453": "\u03bcL",
    "9454": "\u03bcM",
    "9455": "\u03bcg",
    "9456": "\u03bcl",
    "9457": "\u03bcm",
    "9458": "\u0902",
    "9459": "\u0905",
    "9460": "\u0906",
    "9461": "\u0915",
    "9462": "\u0916",
    "9463": "\u0917",
    "9464": "\u091a",
    "9465": "\u091c",
    "9466": "\u091f",
    "9467": "\u0921",
    "9468": "\u0923",
    "9469": "\u0924",
    "9470": "\u0925",
    "9471": "\u0926",
    "9472": "\u0927",
    "9473": "\u0928",
    "9474": "\u092a",
    "9475": "\u092c",
    "9476": "\u092d",
    "9477": "\u092e",
    "9478": "\u092f",
    "9479": "\u0930",
    "9480": "\u0932",
    "9481": "\u0935",
    "9482": "\u0936",
    "9483": "\u0937",
    "9484": "\u0938",
    "9485": "\u0939",
    "9486": "\u093c",
    "9487": "\u093e",
    "9488": "\u093f",
    "9489": "\u0940",
    "9490": "\u0941",
    "9491": "\u0942",
    "9492": "\u0947",
    "9493": "\u0948",
    "9494": "\u094b",
    "9495": "\u094d",
    "9496": "\u0964",
    "9497": "\u0995",
    "9498": "\u0997",
    "9499": "\u099c",
    "9500": "\u09a4",
    "9501": "\u09a6",
    "9502": "\u09a8",
    "9503": "\u09aa",
    "9504": "\u09ac",
    "9505": "\u09ae",
    "9506": "\u09af",
    "9507": "\u09b0",
    "9508": "\u09b2",
    "9509": "\u09b6",
    "9510": "\u09b8",
    "9511": "\u09b9",
    "9512": "\u09bc",
    "9513": "\u09be",
    "9514": "\u09bf",
    "9515": "\u09c0",
    "9516": "\u09c1",
    "9517": "\u09c7",
    "9518": "\u09cb",
    "9519": "\u09cd",
    "9520": "\u0a02",
    "9521": "\u0a24",
    "9522": "\u0a28",
    "9523": "\u0a30",
    "9524": "\u0a32",
    "9525": "\u0a38",
    "9526": "\u0a3e",
    "9527": "\u0a3f",
    "9528": "\u0a40",
    "9529": "\u0a47",
    "9530": "\u0a4b",
    "9531": "\u0a70",
    "9532": "\u0abe",
    "9533": "\u0ac7",
    "9534": "\u0b95",
    "9535": "\u0b9a",
    "9536": "\u0b9f",
    "9537": "\u0ba4",
    "9538": "\u0ba8",
    "9539": "\u0ba9",
    "9540": "\u0baa",
    "9541": "\u0bae",
    "9542": "\u0baf",
    "9543": "\u0bb0",
    "9544": "\u0bb1",
    "9545": "\u0bb2",
    "9546": "\u0bb3",
    "9547": "\u0bb5",
    "9548": "\u0bbe",
    "9549": "\u0bbf",
    "9550": "\u0bc1",
    "9551": "\u0bc8",
    "9552": "\u0bcd",
    "9553": "\u0c30",
    "9554": "\u0c3e",
    "9555": "\u0c3f",
    "9556": "\u0c41",
    "9557": "\u0c4d",
    "9558": "\u0cb0",
    "9559": "\u0ccd",
    "9560": "\u0d02",
    "9561": "\u0d05",
    "9562": "\u0d0e",
    "9563": "\u0d15",
    "9564": "\u0d19",
    "9565": "\u0d1a",
    "9566": "\u0d1e",
    "9567": "\u0d1f",
    "9568": "\u0d23",
    "9569": "\u0d24",
    "9570": "\u0d26",
    "9571": "\u0d28",
    "9572": "\u0d2a",
    "9573": "\u0d2e",
    "9574": "\u0d2f",
    "9575": "\u0d30",
    "9576": "\u0d31",
    "9577": "\u0d32",
    "9578": "\u0d33",
    "9579": "\u0d35",
    "9580": "\u0d36",
    "9581": "\u0d37",
    "9582": "\u0d38",
    "9583": "\u0d3e",
    "9584": "\u0d3f",
    "9585": "\u0d41",
    "9586": "\u0d46",
    "9587": "\u0d47",
    "9588": "\u0d4d",
    "9589": "\u0d7b",
    "9590": "\u0d7c",
    "9591": "\u0d7d",
    "9592": "\u0d7e",
    "9593": "\u0d9a",
    "9594": "\u0db1",
    "9595": "\u0db8",
    "9596": "\u0dbb",
    "9597": "\u0dc0",
    "9598": "\u0dca",
    "9599": "\u0dcf",
    "9600": "\u0dd2",
    "9601": "\u0e01",
    "9602": "\u0e02",
    "9603": "\u0e04",
    "9604": "\u0e07",
    "9605": "\u0e08",
    "9606": "\u0e0a",
    "9607": "\u0e0d",
    "9608": "\u0e13",
    "9609": "\u0e14",
    "9610": "\u0e15",
    "9611": "\u0e16",
    "9612": "\u0e17",
    "9613": "\u0e18",
    "9614": "\u0e19",
    "9615": "\u0e1a",
    "9616": "\u0e1b",
    "9617": "\u0e1c",
    "9618": "\u0e1e",
    "9619": "\u0e20",
    "9620": "\u0e21",
    "9621": "\u0e22",
    "9622": "\u0e23",
    "9623": "\u0e25",
    "9624": "\u0e27",
    "9625": "\u0e28",
    "9626": "\u0e29",
    "9627": "\u0e2a",
    "9628": "\u0e2b",
    "9629": "\u0e2d",
    "9630": "\u0e30",
    "9631": "\u0e31",
    "9632": "\u0e32",
    "9633": "\u0e33",
    "9634": "\u0e34",
    "9635": "\u0e35",
    "9636": "\u0e37",
    "9637": "\u0e38",
    "9638": "\u0e39",
    "9639": "\u0e40",
    "9640": "\u0e41",
    "9641": "\u0e42",
    "9642": "\u0e43",
    "9643": "\u0e44",
    "9644": "\u0e47",
    "9645": "\u0e48",
    "9646": "\u0e49",
    "9647": "\u0e4c",
    "9648": "\u0e51",
    "9649": "\u0f0b",
    "9650": "\u0f42",
    "9651": "\u0f44",
    "9652": "\u0f51",
    "9653": "\u0f53",
    "9654": "\u0f56",
    "9655": "\u0f58",
    "9656": "\u0f62",
    "9657": "\u0f63",
    "9658": "\u0f66",
    "9659": "\u0f72",
    "9660": "\u0f74",
    "9661": "\u0f7a",
    "9662": "\u0f7c",
    "9663": "\u0fb1",
    "9664": "\u1000",
    "9665": "\u1004",
    "9666": "\u1010",
    "9667": "\u1014",
    "9668": "\u1015",
    "9669": "\u1019",
    "9670": "\u101b",
    "9671": "\u101e",
    "9672": "\u102c",
    "9673": "\u102d",
    "9674": "\u102f",
    "9675": "\u1031",
    "9676": "\u1038",
    "9677": "\u103a",
    "9678": "\u103c",
    "9679": "\u10d0",
    "9680": "\u10d1",
    "9681": "\u10d2",
    "9682": "\u10d3",
    "9683": "\u10d4",
    "9684": "\u10d5",
    "9685": "\u10d6",
    "9686": "\u10d7",
    "9687": "\u10d8",
    "9688": "\u10d9",
    "9689": "\u10da",
    "9690": "\u10db",
    "9691": "\u10dc",
    "9692": "\u10dd",
    "9693": "\u10de",
    "9694": "\u10e0",
    "9695": "\u10e1",
    "9696": "\u10e2",
    "9697": "\u10e3",
    "9698": "\u10e4",
    "9699": "\u10e5",
    "9700": "\u10e8",
    "9701": "\u10ea",
    "9702": "\u10eb",
    "9703": "\u10ee",
    "9704": "\u1780",
    "9705": "\u1793",
    "9706": "\u179a",
    "9707": "\u179f",
    "9708": "\u17b6",
    "9709": "\u17d2",
    "9710": "\u1d07",
    "9711": "\u1d49",
    "9712": "\u1e0d",
    "9713": "\u1e0f",
    "9714": "\u1e24",
    "9715": "\u1e25",
    "9716": "\u1e28",
    "9717": "\u1e29",
    "9718": "\u1e2a",
    "9719": "\u1e2b",
    "9720": "\u1e33",
    "9721": "\u1e37",
    "9722": "\u1e43",
    "9723": "\u1e45",
    "9724": "\u1e47",
    "9725": "\u1e5b",
    "9726": "\u1e62",
    "9727": "\u1e63",
    "9728": "\u1e6c",
    "9729": "\u1e6d",
    "9730": "\u1e6f",
    "9731": "\u1e93",
    "9732": "\u1ea1",
    "9733": "\u1ea3",
    "9734": "\u1ea5",
    "9735": "\u1ea7",
    "9736": "\u1ea9",
    "9737": "\u1eab",
    "9738": "\u1ead",
    "9739": "\u1eaf",
    "9740": "\u1eb1",
    "9741": "\u1eb7",
    "9742": "\u1eb9",
    "9743": "\u1ebb",
    "9744": "\u1ebd",
    "9745": "\u1ebf",
    "9746": "\u1ec1",
    "9747": "\u1ec3",
    "9748": "\u1ec5",
    "9749": "\u1ec7",
    "9750": "\u1ec9",
    "9751": "\u1ecb",
    "9752": "\u1ecd",
    "9753": "\u1ecf",
    "9754": "\u1ed1",
    "9755": "\u1ed3",
    "9756": "\u1ed5",
    "9757": "\u1ed7",
    "9758": "\u1ed9",
    "9759": "\u1edb",
    "9760": "\u1edd",
    "9761": "\u1edf",
    "9762": "\u1ee3",
    "9763": "\u1ee5",
    "9764": "\u1ee7",
    "9765": "\u1ee9",
    "9766": "\u1eeb",
    "9767": "\u1eed",
    "9768": "\u1eef",
    "9769": "\u1ef1",
    "9770": "\u1ef3",
    "9771": "\u1ef9",
    "9772": "\u1f00",
    "9773": "\u1f04",
    "9774": "\u1f08",
    "9775": "\u1f10",
    "9776": "\u1f14",
    "9777": "\u1f18",
    "9778": "\u1f21",
    "9779": "\u1f30",
    "9780": "\u1f31",
    "9781": "\u1f38",
    "9782": "\u1f40",
    "9783": "\u1f41",
    "9784": "\u1f50",
    "9785": "\u1f51",
    "9786": "\u1f70",
    "9787": "\u1f71",
    "9788": "\u1f72",
    "9789": "\u1f73",
    "9790": "\u1f74",
    "9791": "\u1f75",
    "9792": "\u1f76",
    "9793": "\u1f77",
    "9794": "\u1f78",
    "9795": "\u1f79",
    "9796": "\u1f7a",
    "9797": "\u1f7b",
    "9798": "\u1fb6",
    "9799": "\u1fc6",
    "9800": "\u1fd6",
    "9801": "\u1fe5",
    "9802": "\u1fe6",
    "9803": "\u1ff6",
    "9804": "\u2002",
    "9805": "\u2003",
    "9806": "\u2009",
    "9807": "\u200a",
    "9808": "\u200b",
    "9809": "\u200c",
    "9810": "\u200d",
    "9811": "\u200e",
    "9812": "\u2010",
    "9813": "\u2011",
    "9814": "\u2012",
    "9815": "\u2013",
    "9816": "\u2014",
[...]
